#include "model.h"

// Keep model aligned to 8 bytes to guarantee aligned 64-bit accesses.
const int g_model_len = 17480;
const int input_tensor_shape[] = {1, 400, 4,};
const char* input_param_type = "int8";
alignas(8) const unsigned char g_model[] = {
  0x1c, 0x00, 0x00, 0x00, 0x54, 0x46, 0x4c, 0x33, 0x14, 0x00, 0x20, 0x00,
  0x1c, 0x00, 0x18, 0x00, 0x14, 0x00, 0x10, 0x00, 0x0c, 0x00, 0x00, 0x00,
  0x08, 0x00, 0x04, 0x00, 0x14, 0x00, 0x00, 0x00, 0x1c, 0x00, 0x00, 0x00,
  0x8c, 0x00, 0x00, 0x00, 0xdc, 0x00, 0x00, 0x00, 0xd4, 0x13, 0x00, 0x00,
  0xe4, 0x13, 0x00, 0x00, 0x14, 0x42, 0x00, 0x00, 0x03, 0x00, 0x00, 0x00,
  0x01, 0x00, 0x00, 0x00, 0x04, 0x00, 0x00, 0x00, 0x7e, 0xd2, 0xff, 0xff,
  0x0c, 0x00, 0x00, 0x00, 0x1c, 0x00, 0x00, 0x00, 0x38, 0x00, 0x00, 0x00,
  0x0f, 0x00, 0x00, 0x00, 0x73, 0x65, 0x72, 0x76, 0x69, 0x6e, 0x67, 0x5f,
  0x64, 0x65, 0x66, 0x61, 0x75, 0x6c, 0x74, 0x00, 0x01, 0x00, 0x00, 0x00,
  0x04, 0x00, 0x00, 0x00, 0xf8, 0xd3, 0xff, 0xff, 0x2c, 0x00, 0x00, 0x00,
  0x04, 0x00, 0x00, 0x00, 0x07, 0x00, 0x00, 0x00, 0x64, 0x65, 0x6e, 0x73,
  0x65, 0x5f, 0x37, 0x00, 0x01, 0x00, 0x00, 0x00, 0x04, 0x00, 0x00, 0x00,
  0x82, 0xd2, 0xff, 0xff, 0x04, 0x00, 0x00, 0x00, 0x13, 0x00, 0x00, 0x00,
  0x6e, 0x6f, 0x72, 0x6d, 0x61, 0x6c, 0x69, 0x7a, 0x61, 0x74, 0x69, 0x6f,
  0x6e, 0x5f, 0x69, 0x6e, 0x70, 0x75, 0x74, 0x00, 0x02, 0x00, 0x00, 0x00,
  0x2c, 0x00, 0x00, 0x00, 0x04, 0x00, 0x00, 0x00, 0x44, 0xd4, 0xff, 0xff,
  0x5c, 0x00, 0x00, 0x00, 0x04, 0x00, 0x00, 0x00, 0x13, 0x00, 0x00, 0x00,
  0x43, 0x4f, 0x4e, 0x56, 0x45, 0x52, 0x53, 0x49, 0x4f, 0x4e, 0x5f, 0x4d,
  0x45, 0x54, 0x41, 0x44, 0x41, 0x54, 0x41, 0x00, 0x68, 0xd4, 0xff, 0xff,
  0x5b, 0x00, 0x00, 0x00, 0x04, 0x00, 0x00, 0x00, 0x13, 0x00, 0x00, 0x00,
  0x6d, 0x69, 0x6e, 0x5f, 0x72, 0x75, 0x6e, 0x74, 0x69, 0x6d, 0x65, 0x5f,
  0x76, 0x65, 0x72, 0x73, 0x69, 0x6f, 0x6e, 0x00, 0x5d, 0x00, 0x00, 0x00,
  0xf4, 0x12, 0x00, 0x00, 0xec, 0x12, 0x00, 0x00, 0xd8, 0x12, 0x00, 0x00,
  0xc4, 0x12, 0x00, 0x00, 0xb0, 0x12, 0x00, 0x00, 0x98, 0x12, 0x00, 0x00,
  0x84, 0x12, 0x00, 0x00, 0x68, 0x12, 0x00, 0x00, 0x54, 0x12, 0x00, 0x00,
  0x38, 0x12, 0x00, 0x00, 0x1c, 0x12, 0x00, 0x00, 0x00, 0x12, 0x00, 0x00,
  0xec, 0x11, 0x00, 0x00, 0xd4, 0x11, 0x00, 0x00, 0xc4, 0x10, 0x00, 0x00,
  0x34, 0x10, 0x00, 0x00, 0x24, 0x08, 0x00, 0x00, 0x94, 0x05, 0x00, 0x00,
  0x80, 0x05, 0x00, 0x00, 0x6c, 0x05, 0x00, 0x00, 0x58, 0x05, 0x00, 0x00,
  0x50, 0x05, 0x00, 0x00, 0x48, 0x05, 0x00, 0x00, 0x40, 0x05, 0x00, 0x00,
  0x38, 0x05, 0x00, 0x00, 0x30, 0x05, 0x00, 0x00, 0x28, 0x05, 0x00, 0x00,
  0x20, 0x05, 0x00, 0x00, 0x18, 0x05, 0x00, 0x00, 0x10, 0x05, 0x00, 0x00,
  0x08, 0x05, 0x00, 0x00, 0x00, 0x05, 0x00, 0x00, 0xf8, 0x04, 0x00, 0x00,
  0xf0, 0x04, 0x00, 0x00, 0xe8, 0x04, 0x00, 0x00, 0xe0, 0x04, 0x00, 0x00,
  0xd8, 0x04, 0x00, 0x00, 0xd0, 0x04, 0x00, 0x00, 0xc8, 0x04, 0x00, 0x00,
  0xc0, 0x04, 0x00, 0x00, 0xb8, 0x04, 0x00, 0x00, 0xb0, 0x04, 0x00, 0x00,
  0xa8, 0x04, 0x00, 0x00, 0xa0, 0x04, 0x00, 0x00, 0x98, 0x04, 0x00, 0x00,
  0x90, 0x04, 0x00, 0x00, 0x88, 0x04, 0x00, 0x00, 0x80, 0x04, 0x00, 0x00,
  0x78, 0x04, 0x00, 0x00, 0x70, 0x04, 0x00, 0x00, 0x68, 0x04, 0x00, 0x00,
  0x60, 0x04, 0x00, 0x00, 0x4c, 0x04, 0x00, 0x00, 0x44, 0x04, 0x00, 0x00,
  0x3c, 0x04, 0x00, 0x00, 0x34, 0x04, 0x00, 0x00, 0x2c, 0x04, 0x00, 0x00,
  0x24, 0x04, 0x00, 0x00, 0x1c, 0x04, 0x00, 0x00, 0x14, 0x04, 0x00, 0x00,
  0x00, 0x04, 0x00, 0x00, 0xec, 0x03, 0x00, 0x00, 0xb4, 0x03, 0x00, 0x00,
  0x04, 0x03, 0x00, 0x00, 0x64, 0x01, 0x00, 0x00, 0x5c, 0x01, 0x00, 0x00,
  0x54, 0x01, 0x00, 0x00, 0x4c, 0x01, 0x00, 0x00, 0x44, 0x01, 0x00, 0x00,
  0x3c, 0x01, 0x00, 0x00, 0x34, 0x01, 0x00, 0x00, 0x2c, 0x01, 0x00, 0x00,
  0x24, 0x01, 0x00, 0x00, 0x1c, 0x01, 0x00, 0x00, 0x14, 0x01, 0x00, 0x00,
  0x0c, 0x01, 0x00, 0x00, 0x04, 0x01, 0x00, 0x00, 0xfc, 0x00, 0x00, 0x00,
  0xf4, 0x00, 0x00, 0x00, 0xec, 0x00, 0x00, 0x00, 0xe4, 0x00, 0x00, 0x00,
  0xdc, 0x00, 0x00, 0x00, 0xd4, 0x00, 0x00, 0x00, 0xcc, 0x00, 0x00, 0x00,
  0xc4, 0x00, 0x00, 0x00, 0xbc, 0x00, 0x00, 0x00, 0xb4, 0x00, 0x00, 0x00,
  0xac, 0x00, 0x00, 0x00, 0xa4, 0x00, 0x00, 0x00, 0x9c, 0x00, 0x00, 0x00,
  0x94, 0x00, 0x00, 0x00, 0x74, 0x00, 0x00, 0x00, 0x04, 0x00, 0x00, 0x00,
  0x6e, 0xd4, 0xff, 0xff, 0x04, 0x00, 0x00, 0x00, 0x60, 0x00, 0x00, 0x00,
  0x0c, 0x00, 0x00, 0x00, 0x08, 0x00, 0x0e, 0x00, 0x08, 0x00, 0x04, 0x00,
  0x08, 0x00, 0x00, 0x00, 0x14, 0x00, 0x00, 0x00, 0x30, 0x00, 0x00, 0x00,
  0x00, 0x00, 0x0a, 0x00, 0x0c, 0x00, 0x08, 0x00, 0x00, 0x00, 0x07, 0x00,
  0x0a, 0x00, 0x00, 0x00, 0x00, 0x00, 0x00, 0x01, 0x04, 0x00, 0x00, 0x00,
  0x01, 0x00, 0x00, 0x00, 0xeb, 0x03, 0x00, 0x00, 0x00, 0x00, 0x0a, 0x00,
  0x10, 0x00, 0x0c, 0x00, 0x08, 0x00, 0x04, 0x00, 0x0a, 0x00, 0x00, 0x00,
  0x02, 0x00, 0x00, 0x00, 0x02, 0x00, 0x00, 0x00, 0x04, 0x00, 0x00, 0x00,
  0x06, 0x00, 0x00, 0x00, 0x32, 0x2e, 0x31, 0x30, 0x2e, 0x31, 0x00, 0x00,
  0xda, 0xd4, 0xff, 0xff, 0x04, 0x00, 0x00, 0x00, 0x10, 0x00, 0x00, 0x00,
  0x32, 0x2e, 0x35, 0x2e, 0x30, 0x00, 0x00, 0x00, 0x00, 0x00, 0x00, 0x00,
  0x00, 0x00, 0x00, 0x00, 0xac, 0xc1, 0xff, 0xff, 0xb0, 0xc1, 0xff, 0xff,
  0xb4, 0xc1, 0xff, 0xff, 0xb8, 0xc1, 0xff, 0xff, 0xbc, 0xc1, 0xff, 0xff,
  0xc0, 0xc1, 0xff, 0xff, 0xc4, 0xc1, 0xff, 0xff, 0xc8, 0xc1, 0xff, 0xff,
  0xcc, 0xc1, 0xff, 0xff, 0xd0, 0xc1, 0xff, 0xff, 0xd4, 0xc1, 0xff, 0xff,
  0xd8, 0xc1, 0xff, 0xff, 0xdc, 0xc1, 0xff, 0xff, 0xe0, 0xc1, 0xff, 0xff,
  0xe4, 0xc1, 0xff, 0xff, 0xe8, 0xc1, 0xff, 0xff, 0xec, 0xc1, 0xff, 0xff,
  0xf0, 0xc1, 0xff, 0xff, 0xf4, 0xc1, 0xff, 0xff, 0xf8, 0xc1, 0xff, 0xff,
  0xfc, 0xc1, 0xff, 0xff, 0x00, 0xc2, 0xff, 0xff, 0x04, 0xc2, 0xff, 0xff,
  0x08, 0xc2, 0xff, 0xff, 0x0c, 0xc2, 0xff, 0xff, 0x10, 0xc2, 0xff, 0xff,
  0x5e, 0xd5, 0xff, 0xff, 0x04, 0x00, 0x00, 0x00, 0x90, 0x01, 0x00, 0x00,
  0x21, 0x17, 0xe2, 0x15, 0xdc, 0x0e, 0x15, 0xee, 0x1f, 0xf4, 0xf6, 0xde,
  0x3f, 0xf3, 0x14, 0x00, 0xf1, 0x48, 0xfb, 0xe9, 0x02, 0xde, 0xe3, 0x17,
  0x1d, 0xcb, 0xce, 0xf6, 0xcb, 0xd9, 0x33, 0xcf, 0x2c, 0x06, 0x24, 0x06,
  0xea, 0x00, 0xf7, 0x14, 0xf1, 0x3e, 0xec, 0xf0, 0xff, 0xed, 0x21, 0x16,
  0xef, 0xe1, 0xf8, 0xe5, 0x09, 0x40, 0xd7, 0xe0, 0x07, 0xdc, 0xd8, 0xeb,
  0x06, 0xd3, 0x0e, 0xf4, 0xe3, 0xe8, 0x05, 0xe2, 0xf6, 0xd6, 0xdd, 0xdf,
  0xe9, 0x31, 0x37, 0xe8, 0xd0, 0x0e, 0x36, 0xe5, 0x48, 0x2e, 0x2c, 0x58,
  0x2d, 0xdc, 0x04, 0x34, 0x34, 0xf6, 0x18, 0xf5, 0xf8, 0xde, 0x05, 0xad,
  0xfa, 0x1e, 0xbd, 0x0a, 0xf8, 0x0b, 0x34, 0xd7, 0xe0, 0xdc, 0xe3, 0xe0,
  0xf4, 0x04, 0x01, 0xc0, 0x10, 0xff, 0xd2, 0xeb, 0xe8, 0xeb, 0x26, 0xe5,
  0x36, 0x42, 0x29, 0xaf, 0xf2, 0xae, 0xf2, 0xec, 0x10, 0xfb, 0x23, 0xb4,
  0x47, 0xd6, 0xe8, 0x43, 0x2e, 0xe9, 0xfa, 0x1e, 0x01, 0x00, 0xf8, 0x17,
  0xd8, 0x31, 0xbb, 0x3e, 0xdc, 0x38, 0xf9, 0x0d, 0x0e, 0x1e, 0x13, 0xe6,
  0x00, 0xc4, 0xfb, 0x30, 0xe1, 0x16, 0x13, 0xf2, 0x31, 0xeb, 0x2f, 0x01,
  0xfb, 0xde, 0x5c, 0x0a, 0xee, 0xf1, 0x1a, 0x09, 0xf7, 0xde, 0xe1, 0xe2,
  0xfe, 0x01, 0xea, 0xf5, 0x2d, 0x26, 0x34, 0xdf, 0xe2, 0x04, 0xe5, 0x09,
  0x29, 0xed, 0xfe, 0xe8, 0xe3, 0xe3, 0x10, 0xf6, 0xdd, 0xf2, 0x22, 0x2a,
  0xef, 0x01, 0xff, 0xfb, 0xe4, 0x01, 0x0b, 0xe0, 0xff, 0x09, 0xee, 0xd0,
  0x25, 0x12, 0x01, 0xf3, 0xc3, 0x23, 0x30, 0xd3, 0xea, 0xfe, 0xb8, 0x19,
  0x18, 0xb6, 0x22, 0xe4, 0xa7, 0xff, 0xf5, 0x03, 0xd9, 0x05, 0x27, 0xff,
  0xec, 0x00, 0x38, 0x12, 0xf8, 0xe8, 0x11, 0x3e, 0xbc, 0xff, 0xf9, 0xfa,
  0x04, 0x37, 0x12, 0x0f, 0x03, 0xeb, 0xf7, 0x13, 0xd4, 0xf4, 0x02, 0x04,
  0x17, 0x21, 0x12, 0x0d, 0x54, 0x15, 0x02, 0xf3, 0xd2, 0xff, 0x08, 0x25,
  0x10, 0x21, 0x00, 0xec, 0x37, 0x0f, 0xff, 0xe5, 0x18, 0x1a, 0xb9, 0x11,
  0xd7, 0x0a, 0x28, 0xf2, 0xf2, 0x02, 0xf2, 0xe2, 0x07, 0x1f, 0x39, 0x44,
  0xfc, 0xe1, 0x01, 0xfd, 0x20, 0x0c, 0x00, 0xec, 0xfd, 0x81, 0x16, 0xc8,
  0xef, 0x10, 0xdd, 0xfb, 0x05, 0x3b, 0xf9, 0x0b, 0xf1, 0xfd, 0x17, 0x09,
  0x3d, 0xfe, 0xe3, 0xbe, 0xf9, 0x0f, 0x36, 0xd7, 0xf2, 0xd3, 0x27, 0x0f,
  0x1c, 0x34, 0x08, 0xda, 0xf2, 0xf8, 0xfc, 0xf3, 0xd0, 0xca, 0xfa, 0xed,
  0x22, 0xfe, 0xd2, 0xda, 0xd2, 0xbd, 0x50, 0xe7, 0xe1, 0x01, 0x04, 0x3e,
  0x15, 0x09, 0x29, 0xe1, 0xfa, 0x22, 0xbf, 0xdf, 0x13, 0xdb, 0x08, 0xe1,
  0x25, 0xf3, 0x24, 0xd6, 0xe9, 0xeb, 0x12, 0x25, 0x1a, 0x23, 0xf7, 0x20,
  0xe6, 0x2d, 0xc0, 0xec, 0xff, 0x07, 0xe6, 0x01, 0xc5, 0xde, 0xdd, 0xfd,
  0xf1, 0xff, 0xde, 0x05, 0xfa, 0xd6, 0xff, 0xff, 0x04, 0x00, 0x00, 0x00,
  0xa0, 0x00, 0x00, 0x00, 0x3a, 0x3e, 0xf8, 0x09, 0x66, 0x1f, 0xb0, 0xfa,
  0x5a, 0x09, 0x49, 0x0c, 0x9e, 0xbd, 0xab, 0xd8, 0xc9, 0x4c, 0x19, 0x3c,
  0xc1, 0x59, 0xea, 0x51, 0x28, 0xbf, 0x19, 0x52, 0xa0, 0xb6, 0xb8, 0xc6,
  0xfe, 0xeb, 0xec, 0x3e, 0x54, 0xc3, 0xd8, 0xbb, 0x53, 0xfd, 0x08, 0x39,
  0x17, 0x5a, 0x1b, 0xd5, 0xff, 0x33, 0xe0, 0x3e, 0xb4, 0xb3, 0xcf, 0xd2,
  0xb7, 0xbf, 0xf8, 0x36, 0x49, 0xf4, 0xbb, 0xf7, 0xbf, 0x52, 0xb5, 0x99,
  0x08, 0x1b, 0xc1, 0x13, 0xee, 0x09, 0x1e, 0xc5, 0xac, 0x9d, 0xde, 0xad,
  0xd4, 0x3e, 0xce, 0xd0, 0x30, 0x90, 0xb1, 0xf7, 0x27, 0x1e, 0xec, 0x97,
  0xcf, 0xe0, 0x2d, 0xb6, 0x0b, 0xf3, 0xc9, 0x3f, 0xb2, 0xa9, 0x22, 0x69,
  0xb0, 0x16, 0x1c, 0x33, 0x04, 0xe9, 0xd0, 0x09, 0x24, 0xec, 0x17, 0x43,
  0x1b, 0x81, 0xeb, 0xc1, 0x33, 0xe2, 0x29, 0x64, 0x07, 0x5c, 0xaf, 0x33,
  0xdf, 0x07, 0x8a, 0x25, 0xb1, 0x6c, 0xf0, 0x39, 0x10, 0x91, 0xee, 0x38,
  0x29, 0x25, 0x13, 0x1e, 0x3f, 0x4b, 0x54, 0x3f, 0xd7, 0x2a, 0xb1, 0xce,
  0x14, 0x19, 0x6b, 0x32, 0xaa, 0xdc, 0x11, 0x5d, 0xa6, 0xd7, 0xff, 0xff,
  0x04, 0x00, 0x00, 0x00, 0x28, 0x00, 0x00, 0x00, 0xab, 0xac, 0xad, 0xac,
  0xab, 0xb0, 0xae, 0xaa, 0xaf, 0xb1, 0x6c, 0x6f, 0x78, 0x73, 0x6a, 0x77,
  0x72, 0x7b, 0x70, 0x7f, 0xb1, 0x9b, 0x90, 0xb5, 0xa1, 0xa9, 0xa8, 0x80,
  0xa8, 0xba, 0xac, 0xaa, 0xae, 0xac, 0xac, 0xaf, 0xae, 0xad, 0xad, 0xb3,
  0xda, 0xd7, 0xff, 0xff, 0x04, 0x00, 0x00, 0x00, 0x04, 0x00, 0x00, 0x00,
  0x00, 0x00, 0x00, 0x00, 0xea, 0xd7, 0xff, 0xff, 0x04, 0x00, 0x00, 0x00,
  0x04, 0x00, 0x00, 0x00, 0x01, 0x00, 0x00, 0x00, 0xb0, 0xc4, 0xff, 0xff,
  0xb4, 0xc4, 0xff, 0xff, 0xb8, 0xc4, 0xff, 0xff, 0xbc, 0xc4, 0xff, 0xff,
  0xc0, 0xc4, 0xff, 0xff, 0xc4, 0xc4, 0xff, 0xff, 0xc8, 0xc4, 0xff, 0xff,
  0x16, 0xd8, 0xff, 0xff, 0x04, 0x00, 0x00, 0x00, 0x04, 0x00, 0x00, 0x00,
  0x90, 0x01, 0x00, 0x00, 0xdc, 0xc4, 0xff, 0xff, 0xe0, 0xc4, 0xff, 0xff,
  0xe4, 0xc4, 0xff, 0xff, 0xe8, 0xc4, 0xff, 0xff, 0xec, 0xc4, 0xff, 0xff,
  0xf0, 0xc4, 0xff, 0xff, 0xf4, 0xc4, 0xff, 0xff, 0xf8, 0xc4, 0xff, 0xff,
  0xfc, 0xc4, 0xff, 0xff, 0x00, 0xc5, 0xff, 0xff, 0x04, 0xc5, 0xff, 0xff,
  0x08, 0xc5, 0xff, 0xff, 0x0c, 0xc5, 0xff, 0xff, 0x10, 0xc5, 0xff, 0xff,
  0x14, 0xc5, 0xff, 0xff, 0x18, 0xc5, 0xff, 0xff, 0x1c, 0xc5, 0xff, 0xff,
  0x20, 0xc5, 0xff, 0xff, 0x24, 0xc5, 0xff, 0xff, 0x28, 0xc5, 0xff, 0xff,
  0x2c, 0xc5, 0xff, 0xff, 0x30, 0xc5, 0xff, 0xff, 0x34, 0xc5, 0xff, 0xff,
  0x38, 0xc5, 0xff, 0xff, 0x3c, 0xc5, 0xff, 0xff, 0x40, 0xc5, 0xff, 0xff,
  0x44, 0xc5, 0xff, 0xff, 0x48, 0xc5, 0xff, 0xff, 0x4c, 0xc5, 0xff, 0xff,
  0x50, 0xc5, 0xff, 0xff, 0x54, 0xc5, 0xff, 0xff, 0xa2, 0xd8, 0xff, 0xff,
  0x04, 0x00, 0x00, 0x00, 0x04, 0x00, 0x00, 0x00, 0x6e, 0x7f, 0x34, 0x6e,
  0xb2, 0xd8, 0xff, 0xff, 0x04, 0x00, 0x00, 0x00, 0x04, 0x00, 0x00, 0x00,
  0xe0, 0x7f, 0xc2, 0xe0, 0xc2, 0xd8, 0xff, 0xff, 0x04, 0x00, 0x00, 0x00,
  0x01, 0x00, 0x00, 0x00, 0x00, 0x00, 0x00, 0x00, 0xd2, 0xd8, 0xff, 0xff,
  0x04, 0x00, 0x00, 0x00, 0x80, 0x02, 0x00, 0x00, 0xe0, 0x35, 0xf0, 0x32,
  0xb6, 0xb8, 0xae, 0x1c, 0xa0, 0xbe, 0xf3, 0xc8, 0xe8, 0xec, 0x53, 0x2a,
  0xfa, 0x3a, 0x64, 0x30, 0xf0, 0x07, 0xd7, 0xf3, 0x65, 0xcf, 0xd0, 0xe1,
  0x25, 0x2a, 0xff, 0x4a, 0xc3, 0x64, 0xd0, 0x10, 0x9e, 0x51, 0x77, 0xea,
  0x00, 0x05, 0x1b, 0x09, 0xb6, 0x0e, 0x14, 0xbd, 0x93, 0x2a, 0x14, 0x20,
  0xb1, 0x47, 0x18, 0x22, 0x40, 0x38, 0xc8, 0x16, 0xa1, 0x2c, 0x17, 0xbe,
  0x49, 0xe3, 0xbd, 0x0f, 0xaa, 0xb2, 0xb8, 0x2e, 0x8c, 0xad, 0x55, 0xb1,
  0xc6, 0x3c, 0x02, 0x46, 0xdb, 0x48, 0xd7, 0xab, 0x35, 0xdd, 0xad, 0xee,
  0x29, 0x45, 0x5a, 0x02, 0x9b, 0x17, 0x08, 0x4c, 0x4a, 0xbd, 0x24, 0xc6,
  0xcd, 0xf9, 0xd5, 0x36, 0x2e, 0xf1, 0x63, 0x03, 0x1d, 0x5e, 0xde, 0x64,
  0x60, 0xd5, 0xed, 0x30, 0x64, 0x3b, 0x3f, 0xba, 0x6b, 0xd9, 0x6f, 0xa4,
  0xa4, 0x05, 0xb1, 0xa2, 0xe0, 0x05, 0xd4, 0xcf, 0x1d, 0xcf, 0xac, 0x25,
  0x0c, 0x18, 0xb6, 0x14, 0x38, 0xe1, 0x39, 0x69, 0xfb, 0xca, 0x6f, 0xd7,
  0x8f, 0x2d, 0x1b, 0x68, 0xcb, 0x21, 0x22, 0x3d, 0x38, 0x19, 0x92, 0x46,
  0x17, 0x63, 0x57, 0xdc, 0xbf, 0x61, 0x49, 0x5b, 0x21, 0xb4, 0x4a, 0xd2,
  0x38, 0x11, 0x49, 0xc5, 0x66, 0x78, 0xaf, 0x68, 0xad, 0x4f, 0xd4, 0x02,
  0x2e, 0x3f, 0xa4, 0x11, 0x5b, 0x64, 0x69, 0x35, 0xa1, 0xa8, 0x28, 0x20,
  0xfd, 0x4c, 0x9c, 0x40, 0x45, 0x44, 0x49, 0xf5, 0xba, 0x57, 0x6b, 0x45,
  0xde, 0x3c, 0x21, 0x32, 0x34, 0xa1, 0x48, 0x4c, 0xa8, 0xc8, 0x39, 0xe1,
  0xcf, 0x4b, 0xe1, 0x71, 0x1c, 0xd1, 0x92, 0x08, 0xdd, 0x25, 0x0a, 0x09,
  0xd6, 0x36, 0x16, 0x3b, 0x68, 0x7f, 0x27, 0x9c, 0xe3, 0x05, 0xee, 0xaa,
  0x9b, 0x9b, 0xe3, 0x47, 0xb9, 0x23, 0x28, 0xae, 0xe6, 0xdd, 0xe5, 0x24,
  0xf6, 0x31, 0x15, 0xdb, 0x19, 0x64, 0x0e, 0x14, 0x1d, 0x20, 0x2d, 0x3c,
  0xda, 0x99, 0x3b, 0xe3, 0x30, 0xdd, 0xfc, 0x26, 0x2e, 0xd1, 0xc2, 0x06,
  0xb0, 0x1f, 0x4a, 0x4b, 0xa1, 0xe8, 0xc7, 0x16, 0x39, 0x55, 0xc1, 0xf3,
  0x11, 0xcd, 0xe2, 0x32, 0x6f, 0x8e, 0xa7, 0x9c, 0x96, 0x49, 0xab, 0xcb,
  0x14, 0x58, 0xd7, 0x34, 0x73, 0xff, 0xde, 0xf0, 0x47, 0x93, 0x95, 0x6c,
  0xcc, 0x02, 0x9a, 0xed, 0x59, 0x6f, 0xd8, 0x0d, 0xc7, 0xb0, 0xda, 0xf4,
  0x57, 0xb9, 0xb4, 0x12, 0x53, 0x9b, 0xb5, 0x0a, 0x11, 0x55, 0xd0, 0xf7,
  0xcf, 0x04, 0x44, 0x5d, 0xb3, 0x5e, 0x5d, 0xd6, 0xd3, 0x25, 0x0c, 0x04,
  0x32, 0x54, 0xea, 0x9b, 0x39, 0xed, 0x39, 0x28, 0xb8, 0x9f, 0x5b, 0x42,
  0x15, 0xb9, 0xf3, 0x1d, 0xc3, 0x08, 0xa9, 0x9a, 0x4d, 0xb1, 0x61, 0x6b,
  0x34, 0x14, 0xf5, 0xb2, 0x2c, 0x26, 0x6b, 0x03, 0x2e, 0xa2, 0x9b, 0x24,
  0xdb, 0x96, 0xa3, 0xc8, 0xd9, 0x35, 0x46, 0x28, 0x10, 0x38, 0xe2, 0xd0,
  0xcc, 0x06, 0xd7, 0x9b, 0xe0, 0x97, 0xd3, 0x10, 0xb8, 0x25, 0xa4, 0xef,
  0x08, 0xf4, 0x90, 0x98, 0x5e, 0x9e, 0x1f, 0x9b, 0xa6, 0x0e, 0xf0, 0x9b,
  0x15, 0x5a, 0x3b, 0xfb, 0x60, 0xaa, 0xcc, 0x9c, 0xf4, 0x00, 0xf5, 0x22,
  0x21, 0xba, 0x15, 0x13, 0x4b, 0x41, 0x63, 0xaa, 0x97, 0xf4, 0x56, 0x26,
  0x33, 0x63, 0xca, 0x55, 0xf4, 0xd8, 0xc9, 0x40, 0xe1, 0xfd, 0x34, 0xc0,
  0x31, 0x25, 0x39, 0x42, 0x4e, 0x03, 0xa1, 0xe0, 0xa1, 0x3e, 0xc7, 0x3f,
  0x44, 0x6a, 0xd6, 0x47, 0x26, 0x0d, 0xe4, 0xe8, 0x1e, 0xe6, 0x1c, 0xc0,
  0x42, 0x6f, 0x3c, 0xb7, 0xc7, 0x66, 0xdb, 0xf4, 0xbb, 0xde, 0x58, 0x40,
  0x9c, 0x08, 0x3f, 0xfa, 0xb8, 0xf5, 0x68, 0x0f, 0x04, 0x0f, 0x96, 0xdf,
  0x66, 0x07, 0xcb, 0xf5, 0x95, 0xca, 0x03, 0x22, 0xd3, 0xf3, 0x5a, 0x98,
  0x60, 0x30, 0xef, 0x36, 0x69, 0xc0, 0x38, 0x16, 0xd9, 0xf9, 0xa4, 0xae,
  0x03, 0x9e, 0x00, 0x2b, 0xbe, 0x2c, 0x65, 0x9c, 0x63, 0xca, 0x59, 0x40,
  0x0c, 0x43, 0x4d, 0x55, 0x61, 0x10, 0x30, 0xfd, 0x5b, 0xed, 0xcb, 0x17,
  0xfc, 0x3e, 0xe7, 0x42, 0xa9, 0x32, 0xb0, 0xf3, 0x0e, 0x31, 0x04, 0x50,
  0xa9, 0x1e, 0xf5, 0x2e, 0x93, 0x42, 0x3a, 0x0f, 0xc8, 0x3b, 0xf5, 0x26,
  0x23, 0xf2, 0x51, 0x9f, 0xe9, 0xac, 0x32, 0x00, 0x05, 0xfc, 0x2f, 0x36,
  0xde, 0xda, 0x51, 0x22, 0x90, 0x02, 0xe8, 0x54, 0x09, 0x00, 0xa6, 0x04,
  0xf5, 0x03, 0xdf, 0xa8, 0x49, 0xc7, 0x55, 0x04, 0x70, 0x03, 0xd7, 0xd2,
  0xa3, 0xc5, 0xc7, 0x1a, 0x15, 0x5b, 0xd9, 0xda, 0x4d, 0xb5, 0x03, 0xdc,
  0x6d, 0xe4, 0xef, 0x92, 0x3f, 0x03, 0x21, 0xb0, 0x39, 0xa4, 0x61, 0xd0,
  0x5e, 0xdb, 0xff, 0xff, 0x04, 0x00, 0x00, 0x00, 0x00, 0x08, 0x00, 0x00,
  0x6d, 0x1b, 0xbb, 0xb7, 0x69, 0xde, 0x56, 0x0a, 0x52, 0x50, 0xc6, 0x70,
  0x01, 0xe5, 0xc9, 0x71, 0x8d, 0x02, 0xd7, 0x60, 0xa6, 0xfc, 0x6c, 0x02,
  0xd1, 0xcc, 0xed, 0xde, 0xfe, 0x40, 0xfe, 0x2f, 0xce, 0xcb, 0x0c, 0xac,
  0x63, 0x3b, 0x29, 0xe9, 0xdc, 0xa8, 0x07, 0x0e, 0x5e, 0x3a, 0x99, 0xa6,
  0x04, 0x44, 0xef, 0x42, 0x5d, 0x19, 0xb8, 0x49, 0xb7, 0x71, 0x2c, 0xcc,
  0x32, 0x02, 0x21, 0x03, 0x20, 0x4f, 0x34, 0x10, 0x62, 0x22, 0xb1, 0x29,
  0x58, 0x06, 0x77, 0xf3, 0xdb, 0x48, 0x4c, 0x20, 0x59, 0xa8, 0xb2, 0x55,
  0x39, 0xe1, 0x6c, 0x69, 0xc1, 0xca, 0xc2, 0x91, 0x19, 0x1d, 0x11, 0x90,
  0x6b, 0x3a, 0x2c, 0xf5, 0xd7, 0xcf, 0xd2, 0x5e, 0xad, 0x47, 0xfe, 0xc4,
  0xe9, 0x1a, 0x73, 0x30, 0x36, 0x66, 0x41, 0xe6, 0x02, 0x2d, 0xda, 0x9f,
  0xca, 0x3b, 0x15, 0x72, 0xca, 0xbb, 0xb9, 0xec, 0xac, 0xd1, 0xe6, 0x5a,
  0xc1, 0xa8, 0x14, 0x5f, 0xac, 0x2a, 0x53, 0x00, 0xaa, 0x16, 0x2a, 0xbd,
  0x5d, 0xef, 0x0b, 0x0f, 0x04, 0x23, 0xb1, 0x20, 0xff, 0x3e, 0x28, 0x26,
  0x52, 0x93, 0xdf, 0x3f, 0xfc, 0x2f, 0xea, 0x98, 0x52, 0x72, 0xa7, 0xed,
  0x0d, 0xeb, 0x3d, 0x49, 0x52, 0xe9, 0x2a, 0xe9, 0x6e, 0x4a, 0xc3, 0xc9,
  0x6f, 0x9a, 0x4e, 0xaa, 0xc6, 0x37, 0xf8, 0x27, 0xaf, 0x31, 0x31, 0x4f,
  0x5c, 0x41, 0xa5, 0xa0, 0xbb, 0x77, 0x26, 0xbd, 0x53, 0x93, 0x57, 0xad,
  0x39, 0xef, 0x37, 0xe3, 0x3e, 0x4a, 0x05, 0x17, 0x60, 0x30, 0x90, 0x25,
  0x1f, 0x36, 0xa7, 0x11, 0x2e, 0x42, 0x33, 0x12, 0xdf, 0x1e, 0x14, 0x0d,
  0x36, 0x3b, 0xf7, 0x90, 0xde, 0x65, 0x5d, 0x99, 0xe2, 0x02, 0x07, 0x44,
  0xce, 0x66, 0x4b, 0x35, 0x8c, 0x15, 0x64, 0xcf, 0xdc, 0x57, 0xbd, 0x6e,
  0xc4, 0x76, 0x02, 0x56, 0x05, 0xa5, 0x39, 0x56, 0xcc, 0x93, 0xe1, 0x57,
  0x15, 0x18, 0xdf, 0x31, 0x14, 0x60, 0xbb, 0x1f, 0xe2, 0x41, 0xba, 0xc0,
  0x9b, 0x30, 0xce, 0x35, 0x45, 0x64, 0xa8, 0xf0, 0xba, 0xe8, 0x7b, 0x57,
  0x2a, 0x3b, 0xdf, 0x3c, 0xff, 0x33, 0x9a, 0x5c, 0xe2, 0xb3, 0xe9, 0xba,
  0xc5, 0xcb, 0xd6, 0xab, 0xe3, 0xc7, 0x12, 0xb8, 0x2f, 0xbf, 0x7f, 0x1d,
  0xf4, 0xeb, 0x47, 0xb2, 0x8d, 0x4b, 0x62, 0x05, 0xeb, 0xe1, 0x45, 0x1f,
  0xd0, 0x43, 0x24, 0x15, 0xc7, 0xd3, 0xc6, 0x6f, 0x30, 0xa3, 0x73, 0x8a,
  0xa1, 0xff, 0x0e, 0x33, 0x1a, 0x8d, 0xfc, 0xb7, 0x4b, 0x28, 0xb7, 0x13,
  0x64, 0x19, 0xd1, 0xfc, 0xb6, 0x1d, 0xf2, 0xaa, 0xbb, 0x01, 0x0a, 0x65,
  0xf3, 0x06, 0x69, 0x55, 0x9a, 0x01, 0xa5, 0xe4, 0x99, 0x9e, 0xe1, 0x36,
  0xa5, 0x6e, 0xb8, 0x0c, 0xe8, 0x63, 0x75, 0xf4, 0x49, 0x0d, 0x43, 0x00,
  0xa4, 0x26, 0xca, 0xb6, 0xb1, 0xff, 0xbb, 0xd8, 0x9d, 0x1c, 0xdc, 0xfe,
  0x67, 0x44, 0xaf, 0x29, 0x43, 0xef, 0x13, 0xd6, 0x90, 0x10, 0x13, 0xfd,
  0xd1, 0x2d, 0x85, 0x11, 0x42, 0xc3, 0x53, 0x10, 0x55, 0xad, 0x01, 0x58,
  0xa2, 0xdc, 0x57, 0x2f, 0x1a, 0x4f, 0xfb, 0x08, 0x63, 0x2c, 0xf0, 0x94,
  0x64, 0xa2, 0x2b, 0x69, 0xed, 0xea, 0xa0, 0x3d, 0x48, 0xa3, 0x42, 0xd8,
  0x06, 0xe8, 0x45, 0x4c, 0x97, 0x85, 0xa8, 0x98, 0x13, 0x05, 0x3a, 0xa6,
  0xd7, 0x06, 0x24, 0xae, 0x56, 0x07, 0xf9, 0x4b, 0xd7, 0xbb, 0x0c, 0x4d,
  0xb9, 0xd5, 0x00, 0x34, 0x25, 0x90, 0x4a, 0x59, 0x13, 0xc8, 0xf6, 0x0d,
  0x39, 0xa6, 0x0e, 0xf7, 0x3c, 0x1e, 0x66, 0xbb, 0x52, 0xa3, 0xaa, 0x11,
  0x3d, 0x2b, 0xab, 0xa4, 0x18, 0xa0, 0xcd, 0xb7, 0x8a, 0x63, 0x00, 0xa3,
  0x91, 0xfb, 0x0d, 0x6c, 0x71, 0xfd, 0x36, 0xa8, 0xf8, 0x5c, 0x24, 0xf2,
  0xb6, 0x4b, 0xc7, 0xb7, 0x2b, 0x11, 0x54, 0xd2, 0x0e, 0xc1, 0xd2, 0xcf,
  0x39, 0xc7, 0xa9, 0x60, 0x86, 0x07, 0x1e, 0x86, 0xc4, 0x42, 0x6e, 0x73,
  0x45, 0xb2, 0xf1, 0x98, 0x10, 0xdf, 0x6b, 0x25, 0x67, 0x56, 0x08, 0x47,
  0x33, 0xd5, 0xdd, 0x24, 0xa3, 0xbf, 0xcd, 0x40, 0xa6, 0x12, 0x98, 0xf9,
  0x5c, 0x38, 0x16, 0xc9, 0x50, 0x57, 0xd7, 0xe3, 0xa4, 0x1a, 0xe9, 0x9e,
  0x58, 0x2f, 0xf4, 0x28, 0x69, 0xf6, 0x73, 0x6b, 0x5f, 0x4f, 0xde, 0xbc,
  0xfb, 0xf4, 0x20, 0xf6, 0x90, 0x21, 0x47, 0xa4, 0xb0, 0xfe, 0xbb, 0x8a,
  0xd0, 0xcf, 0x4b, 0x0f, 0x96, 0x70, 0xb6, 0x20, 0x12, 0xd3, 0x91, 0x25,
  0xcf, 0x59, 0x5c, 0x1e, 0xea, 0xc1, 0xd4, 0x16, 0x65, 0x60, 0x2b, 0x50,
  0xc7, 0x06, 0x94, 0x99, 0x0e, 0x9f, 0x8c, 0xeb, 0x46, 0xf0, 0xf1, 0x1a,
  0xc6, 0x28, 0x05, 0x64, 0x56, 0x81, 0xe4, 0x93, 0xf3, 0xa4, 0x13, 0xcb,
  0xbc, 0xb5, 0x29, 0x48, 0x20, 0xba, 0x50, 0xad, 0xb4, 0x70, 0x0d, 0x15,
  0x42, 0x2d, 0x3c, 0xb5, 0x1b, 0xb7, 0x5f, 0x26, 0xa7, 0xac, 0x5c, 0x15,
  0xbb, 0x01, 0xa5, 0xc7, 0x13, 0xf2, 0x1b, 0xde, 0x2b, 0x25, 0xd3, 0x4a,
  0x58, 0x3c, 0x96, 0x8e, 0xdf, 0xc4, 0xdf, 0xc6, 0x4a, 0x8d, 0xce, 0x14,
  0xaa, 0x17, 0x94, 0xbb, 0x66, 0xef, 0xfb, 0xc4, 0x40, 0x47, 0xb5, 0x78,
  0x46, 0x75, 0x01, 0x04, 0xcd, 0xa6, 0x1b, 0xf8, 0x1b, 0xa9, 0xde, 0xb6,
  0x0b, 0x64, 0x4d, 0x19, 0x8d, 0xc2, 0x03, 0xa4, 0x4e, 0xa0, 0xe5, 0xdb,
  0x60, 0x6d, 0x22, 0xaa, 0xf3, 0x5b, 0x96, 0x9a, 0x42, 0xd2, 0x73, 0x02,
  0xa7, 0xf8, 0x47, 0x0f, 0x0a, 0x22, 0x26, 0x4f, 0x3d, 0xb7, 0x17, 0x92,
  0x55, 0x48, 0xff, 0xcf, 0xd5, 0xd8, 0x3b, 0xe6, 0x07, 0x47, 0xd5, 0x14,
  0x67, 0x3b, 0x06, 0xde, 0xd5, 0xbc, 0xea, 0xfc, 0x32, 0x51, 0x4f, 0xf9,
  0xf1, 0xd9, 0x49, 0x24, 0xda, 0x3e, 0x39, 0x65, 0x25, 0xbd, 0x9d, 0x2b,
  0x0e, 0xa6, 0x67, 0x29, 0xda, 0xcb, 0x8e, 0xfb, 0x1e, 0x70, 0x3f, 0x1a,
  0xba, 0x25, 0x0a, 0x72, 0xac, 0x0b, 0xc0, 0x74, 0x57, 0xe3, 0xa4, 0xff,
  0x4a, 0x22, 0x6d, 0xae, 0x40, 0x20, 0xa4, 0xe0, 0x57, 0xb0, 0x99, 0x8a,
  0x24, 0xc3, 0x41, 0x6b, 0x5b, 0x66, 0xaa, 0x24, 0xa9, 0xa8, 0xed, 0x1e,
  0x18, 0xf9, 0xef, 0x8c, 0x96, 0x3a, 0x17, 0xb9, 0x3a, 0x1e, 0xa2, 0xb1,
  0x9a, 0x32, 0xba, 0x2d, 0x24, 0x0f, 0x22, 0xc0, 0xdd, 0x07, 0xe3, 0x8b,
  0xc0, 0xe6, 0xe4, 0xe8, 0xf0, 0xa4, 0x2d, 0x91, 0xb8, 0x62, 0x9e, 0x6f,
  0x2b, 0x3a, 0xcc, 0x1f, 0xff, 0x8f, 0xf8, 0x4b, 0x04, 0x10, 0xeb, 0xc1,
  0x5a, 0xe4, 0x20, 0xf0, 0x48, 0x5f, 0x4b, 0x54, 0x3c, 0x1e, 0xf3, 0xbd,
  0x3c, 0x94, 0x8b, 0x9d, 0xf2, 0xc9, 0x09, 0x35, 0xe4, 0x2a, 0x61, 0xcf,
  0x3e, 0xd2, 0xa9, 0xa2, 0x67, 0xf3, 0x76, 0x56, 0x8a, 0xbb, 0xbf, 0x0f,
  0xb5, 0x88, 0xea, 0x62, 0xdb, 0x1d, 0x6b, 0xee, 0x1d, 0xab, 0xc5, 0xc5,
  0xdf, 0x40, 0x53, 0x01, 0x64, 0x4c, 0x47, 0xa2, 0x5b, 0x63, 0x31, 0x27,
  0x3f, 0xec, 0xa3, 0x28, 0xd0, 0x3d, 0xc4, 0xc8, 0xc5, 0x93, 0x56, 0x91,
  0x20, 0x66, 0x0a, 0xf4, 0x0b, 0x0f, 0x4d, 0xd0, 0x29, 0xf9, 0xdc, 0x9c,
  0x4c, 0x8b, 0x3e, 0x98, 0x69, 0x65, 0x6e, 0x2f, 0xae, 0x32, 0x9c, 0x9f,
  0x91, 0xf2, 0x34, 0x95, 0x74, 0x8f, 0xc6, 0xe5, 0x1b, 0xb1, 0xf2, 0x8c,
  0xd8, 0x4e, 0xe0, 0x74, 0x0a, 0x91, 0x26, 0x00, 0xa0, 0x20, 0xd1, 0xae,
  0xfa, 0x94, 0xe0, 0x96, 0x6c, 0x98, 0xc7, 0x91, 0x4b, 0x8f, 0xb0, 0x51,
  0x0a, 0x90, 0xa7, 0xd9, 0x42, 0xb7, 0x0e, 0xaa, 0xfa, 0x31, 0x69, 0x25,
  0x36, 0x00, 0x28, 0x66, 0x9c, 0xf8, 0x44, 0xca, 0x15, 0xb9, 0xe3, 0xc1,
  0xe6, 0x4d, 0xb7, 0xd8, 0x2e, 0xdb, 0xf1, 0xcc, 0x05, 0x67, 0x44, 0x19,
  0xa0, 0x4f, 0xe4, 0xbe, 0x5f, 0xd3, 0xe3, 0x64, 0x2a, 0x79, 0xa2, 0x0f,
  0x45, 0xd5, 0x9b, 0x48, 0xf0, 0xd0, 0x53, 0xa4, 0x03, 0x45, 0xe4, 0x32,
  0x5e, 0x53, 0xcd, 0x5c, 0xdd, 0x20, 0x9a, 0x07, 0x51, 0xe6, 0xc4, 0x2f,
  0x51, 0x37, 0x12, 0xc1, 0xa1, 0x9c, 0x98, 0x8f, 0x44, 0x4b, 0x21, 0xf9,
  0x31, 0xe6, 0xff, 0xe2, 0x6c, 0x4f, 0xfa, 0x9e, 0xb5, 0x5d, 0xf9, 0x5b,
  0x6b, 0x45, 0xce, 0xea, 0x22, 0x2a, 0xff, 0x91, 0x3f, 0xaf, 0x9b, 0x88,
  0xfa, 0x71, 0x4e, 0x1a, 0x0d, 0x66, 0x76, 0x56, 0x42, 0xa5, 0x6d, 0xea,
  0x75, 0x41, 0x61, 0x92, 0xcc, 0xba, 0xd6, 0x59, 0x40, 0x03, 0x10, 0xc6,
  0xb2, 0xc0, 0x2a, 0x17, 0x3c, 0xa3, 0xd8, 0xa2, 0xba, 0xf2, 0xf7, 0xbb,
  0xf3, 0xfd, 0x04, 0x43, 0x99, 0x17, 0xc8, 0x94, 0xbb, 0x6f, 0x2d, 0x37,
  0xa1, 0x26, 0x36, 0xa8, 0x47, 0xae, 0xc3, 0x71, 0x6c, 0xb4, 0x0e, 0xea,
  0xd5, 0x07, 0xc9, 0xd1, 0xfb, 0x1b, 0xaf, 0x6f, 0xaf, 0xa8, 0x39, 0x56,
  0x9a, 0x25, 0x62, 0x8e, 0x5a, 0xde, 0x41, 0x9d, 0x6d, 0x18, 0xa1, 0xc4,
  0xce, 0x56, 0x8c, 0x20, 0xf5, 0x12, 0x6e, 0x51, 0xc8, 0xfa, 0x5b, 0xc7,
  0x09, 0x38, 0x5e, 0xad, 0x9b, 0x69, 0xa7, 0x0e, 0xb0, 0x72, 0xd4, 0xd1,
  0xe0, 0xe0, 0x31, 0xbc, 0xab, 0xe6, 0x61, 0x3d, 0x06, 0xff, 0x42, 0xce,
  0x21, 0x49, 0x9b, 0x09, 0x13, 0x8b, 0xb6, 0x50, 0x33, 0x1f, 0x4a, 0x6d,
  0x2d, 0x14, 0x0e, 0x3b, 0x90, 0x53, 0x97, 0x88, 0x2d, 0xc3, 0xd8, 0x11,
  0xb8, 0x2e, 0x52, 0x3a, 0xc4, 0x65, 0x56, 0xf7, 0x51, 0x1b, 0x34, 0xbb,
  0xb1, 0xe6, 0xb8, 0x89, 0xd2, 0x2e, 0xf9, 0xca, 0x3c, 0x68, 0xab, 0x4e,
  0xcd, 0xee, 0xb4, 0x0b, 0x9b, 0x2f, 0xe8, 0xc0, 0x4d, 0xfe, 0xf5, 0x1e,
  0x15, 0x8d, 0x0b, 0x5c, 0x29, 0x0e, 0x14, 0x32, 0x22, 0xff, 0xf8, 0x52,
  0xef, 0xdf, 0xef, 0xe7, 0x3f, 0x5c, 0x1d, 0x74, 0x95, 0x05, 0x2e, 0x51,
  0x92, 0x35, 0xba, 0x21, 0xd4, 0xb1, 0xa4, 0x46, 0xe7, 0xd1, 0xd5, 0x26,
  0x6e, 0xc6, 0xd0, 0xac, 0x75, 0x95, 0xee, 0x63, 0xca, 0x59, 0x96, 0xc7,
  0x59, 0x16, 0x39, 0x6d, 0x60, 0x21, 0x55, 0xe0, 0xf3, 0xe8, 0x5b, 0x15,
  0x74, 0x10, 0xaa, 0xe2, 0x65, 0x6f, 0xf0, 0xbc, 0xcc, 0x9d, 0x1d, 0x36,
  0x56, 0x64, 0xed, 0x49, 0x32, 0xa8, 0x97, 0xcb, 0xcb, 0x9b, 0xbd, 0xf0,
  0xaf, 0xb3, 0xbe, 0x6b, 0x12, 0xc6, 0xb1, 0xf2, 0x20, 0xba, 0x31, 0x5e,
  0x90, 0x2e, 0xf1, 0x19, 0xc8, 0x54, 0x22, 0x44, 0x66, 0xeb, 0x62, 0x11,
  0xd4, 0x28, 0x4d, 0x95, 0x2f, 0xa4, 0x2f, 0x75, 0x8f, 0x09, 0xd7, 0x27,
  0x8d, 0xca, 0x40, 0x26, 0xbd, 0x3f, 0xa3, 0xea, 0xbb, 0x91, 0xf6, 0x5b,
  0x76, 0x4a, 0x2b, 0xc0, 0xc4, 0x6a, 0x2f, 0x51, 0x73, 0x5a, 0x21, 0xaf,
  0xf2, 0x93, 0x0b, 0x33, 0x04, 0x11, 0xe4, 0x10, 0x95, 0xc7, 0xad, 0x8c,
  0xd0, 0x17, 0x05, 0xd8, 0x6d, 0x49, 0x39, 0xc3, 0xd1, 0x03, 0xfa, 0xa1,
  0xc5, 0x2f, 0x70, 0xf7, 0x8e, 0xb0, 0x1c, 0x89, 0xdb, 0x74, 0xe9, 0x36,
  0xff, 0x34, 0x8e, 0xd4, 0xc4, 0x05, 0xed, 0x91, 0x12, 0x5c, 0xcc, 0x58,
  0xc7, 0x0a, 0x52, 0x10, 0x4f, 0x8b, 0x94, 0x2c, 0xfc, 0x35, 0x29, 0xfa,
  0xa4, 0xca, 0x08, 0xc7, 0x30, 0xf9, 0xf4, 0x6e, 0xb7, 0x01, 0x4a, 0x9c,
  0x8a, 0x73, 0x27, 0x6d, 0x5e, 0x2e, 0x47, 0x8d, 0xb3, 0x09, 0xaa, 0xa4,
  0x52, 0xbb, 0xb7, 0xf5, 0xd3, 0xc1, 0xa5, 0x62, 0xc7, 0x97, 0x27, 0x42,
  0xd6, 0x6e, 0xe7, 0x27, 0x65, 0xc5, 0x4c, 0xd4, 0xec, 0x29, 0xca, 0xa2,
  0x6d, 0x26, 0x95, 0x28, 0x31, 0x51, 0x00, 0x1b, 0xe8, 0x72, 0x6a, 0xf7,
  0x34, 0xb9, 0xe1, 0xdf, 0xd1, 0x8c, 0xf4, 0xa6, 0x63, 0x11, 0x72, 0x4b,
  0x0b, 0x71, 0x17, 0x3f, 0x07, 0x14, 0xdf, 0xf6, 0x2e, 0xe3, 0x9c, 0x29,
  0x22, 0x1f, 0xc6, 0xbb, 0x6d, 0x9c, 0x5b, 0xc2, 0x9b, 0x15, 0x9f, 0x98,
  0x38, 0xab, 0x07, 0xda, 0x2b, 0x32, 0xad, 0xa4, 0x01, 0x76, 0xcb, 0x21,
  0xb6, 0x75, 0xbe, 0x28, 0xf8, 0x1b, 0x07, 0x44, 0x4c, 0xb4, 0xfc, 0x76,
  0xcd, 0x37, 0x66, 0xaa, 0x42, 0x57, 0x9a, 0x51, 0x25, 0xf3, 0xb5, 0xcb,
  0x1f, 0x3e, 0x06, 0xc8, 0x1d, 0xac, 0x3f, 0x97, 0x3e, 0xc2, 0xec, 0x18,
  0x9e, 0xfc, 0x2a, 0x92, 0xa8, 0x9e, 0xef, 0x05, 0xd9, 0xfd, 0x32, 0xde,
  0xb1, 0x00, 0x96, 0xd7, 0xb7, 0x43, 0x6b, 0x9f, 0x2d, 0xdd, 0xa4, 0xa4,
  0xa4, 0xed, 0xf8, 0x65, 0x58, 0x73, 0x1f, 0x5c, 0x0c, 0x17, 0x61, 0x4b,
  0x96, 0x97, 0x4a, 0x30, 0xc7, 0xd4, 0xbb, 0x0c, 0x2a, 0xce, 0xf4, 0x10,
  0x63, 0xf4, 0x9a, 0x68, 0xd3, 0xb9, 0xa1, 0x29, 0xbd, 0x4d, 0x05, 0xab,
  0x15, 0xd2, 0x09, 0x3a, 0xb3, 0x20, 0xc8, 0x0a, 0x3b, 0x28, 0x3e, 0xeb,
  0x97, 0x4f, 0x98, 0x4f, 0xa2, 0x91, 0x1a, 0x63, 0xec, 0x0f, 0x94, 0x22,
  0x22, 0x55, 0x77, 0xcd, 0xf3, 0xd6, 0xa4, 0x22, 0xd9, 0xdd, 0xe8, 0xa6,
  0x6c, 0x4e, 0x4a, 0x05, 0xd2, 0x31, 0x9a, 0x30, 0x4a, 0x3a, 0xd0, 0xb2,
  0xa5, 0x4d, 0x19, 0xf5, 0x46, 0x34, 0xf2, 0x0b, 0x04, 0xeb, 0xf5, 0xe1,
  0x61, 0x87, 0xb0, 0xd7, 0xb5, 0xbd, 0xa5, 0x47, 0xd4, 0xa3, 0x33, 0xc5,
  0x1b, 0x75, 0x36, 0xdf, 0x2f, 0x1c, 0x59, 0x1f, 0x26, 0x10, 0x1e, 0x0d,
  0xbc, 0x03, 0x28, 0xb2, 0x6b, 0x9d, 0x3f, 0x90, 0x89, 0xeb, 0xe3, 0xed,
  0x5a, 0xbd, 0x3b, 0x74, 0x3b, 0x50, 0x25, 0x20, 0xf6, 0xdd, 0xe3, 0x76,
  0xc7, 0x1b, 0x14, 0x14, 0x8d, 0x08, 0xf5, 0x9c, 0xfc, 0xc0, 0xaf, 0xa4,
  0xc2, 0x1c, 0x25, 0x34, 0xf0, 0x3d, 0xba, 0xa0, 0x0d, 0x34, 0xf9, 0xd0,
  0x72, 0xc5, 0x27, 0xb0, 0x3e, 0x3a, 0x49, 0x03, 0x5f, 0xd9, 0xb9, 0x15,
  0xa9, 0x53, 0x9d, 0x68, 0x18, 0x10, 0x63, 0xf4, 0x4e, 0xaf, 0x50, 0xd7,
  0xc4, 0x64, 0x4a, 0xf5, 0x96, 0xc6, 0x92, 0xc8, 0xe4, 0x47, 0x0a, 0xce,
  0x09, 0x13, 0x0d, 0xeb, 0xe2, 0x0d, 0xd1, 0xe4, 0x5b, 0x92, 0x1b, 0x06,
  0x77, 0x5d, 0xfb, 0xa3, 0xd2, 0xa6, 0xee, 0xc8, 0x73, 0xdf, 0x52, 0x0f,
  0x8b, 0xc8, 0x99, 0x31, 0x41, 0x25, 0x3f, 0x21, 0x8a, 0xf2, 0x2a, 0x19,
  0x1f, 0x3d, 0x8c, 0xe6, 0xad, 0x2e, 0x61, 0x26, 0x0e, 0x56, 0x53, 0x4e,
  0x6a, 0xdb, 0xae, 0xea, 0x9a, 0x19, 0xd5, 0x72, 0xa7, 0xb2, 0x67, 0x1c,
  0xc5, 0x57, 0x6d, 0x73, 0x2b, 0x21, 0x26, 0xaf, 0x20, 0x09, 0xaa, 0x39,
  0x9b, 0x52, 0x73, 0x74, 0xb2, 0x2a, 0xb5, 0x02, 0xac, 0xcb, 0x5b, 0xbd,
  0x64, 0x00, 0x62, 0x73, 0x74, 0x23, 0xf5, 0x17, 0x56, 0x67, 0xf7, 0x13,
  0xd5, 0x9c, 0xbd, 0xc1, 0xb1, 0x24, 0x41, 0x18, 0x3f, 0x30, 0x8b, 0x8c,
  0x71, 0xbd, 0xbf, 0x43, 0x43, 0xbe, 0x5c, 0xce, 0x71, 0xf1, 0xd4, 0x70,
  0x92, 0xc8, 0xb8, 0x99, 0xc4, 0x13, 0x66, 0x24, 0xfe, 0x15, 0xa5, 0x74,
  0x8a, 0x16, 0x08, 0x12, 0x2b, 0x06, 0xee, 0x41, 0xd1, 0xfa, 0x46, 0xac,
  0x32, 0xc2, 0xfb, 0x92, 0x52, 0x18, 0x39, 0xbe, 0x27, 0xba, 0xd1, 0x13,
  0x43, 0x22, 0x44, 0xd2, 0x1d, 0x70, 0x0c, 0xb1, 0x6a, 0xe3, 0xff, 0xff,
  0x04, 0x00, 0x00, 0x00, 0x80, 0x00, 0x00, 0x00, 0x0c, 0xf3, 0xff, 0xff,
  0x72, 0xf8, 0xff, 0xff, 0x3f, 0x1d, 0x00, 0x00, 0xc8, 0x11, 0x00, 0x00,
  0xbb, 0x3b, 0x00, 0x00, 0xf2, 0xfe, 0xff, 0xff, 0x24, 0xea, 0xff, 0xff,
  0x09, 0xd3, 0xff, 0xff, 0x11, 0xdc, 0xff, 0xff, 0x31, 0xe4, 0xff, 0xff,
  0x76, 0xdf, 0xff, 0xff, 0x9b, 0x17, 0x00, 0x00, 0x6d, 0xfc, 0xff, 0xff,
  0x07, 0x15, 0x00, 0x00, 0xb5, 0x0b, 0x00, 0x00, 0x13, 0xf4, 0xff, 0xff,
  0x47, 0xed, 0xff, 0xff, 0x65, 0xe6, 0xff, 0xff, 0x56, 0xf1, 0xff, 0xff,
  0xc9, 0xd0, 0xff, 0xff, 0x2b, 0x02, 0x00, 0x00, 0x05, 0xf3, 0xff, 0xff,
  0x24, 0x07, 0x00, 0x00, 0xa0, 0x01, 0x00, 0x00, 0x62, 0x14, 0x00, 0x00,
  0xba, 0x04, 0x00, 0x00, 0x76, 0x10, 0x00, 0x00, 0xbe, 0xda, 0xff, 0xff,
  0xf8, 0x03, 0x00, 0x00, 0x00, 0x15, 0x00, 0x00, 0xb4, 0xe8, 0xff, 0xff,
  0x6e, 0xfc, 0xff, 0xff, 0xf6, 0xe3, 0xff, 0xff, 0x04, 0x00, 0x00, 0x00,
  0x00, 0x01, 0x00, 0x00, 0x6d, 0x45, 0xee, 0xae, 0xd1, 0x94, 0x2f, 0x55,
  0xa2, 0x22, 0x6e, 0xac, 0x08, 0xd4, 0xe7, 0xc1, 0xfc, 0x33, 0x3c, 0x15,
  0x96, 0x44, 0xbc, 0xa5, 0xb3, 0xbd, 0x12, 0x5a, 0x57, 0x0c, 0x3b, 0x36,
  0x3b, 0x9d, 0x38, 0xda, 0x4e, 0xdd, 0x30, 0xec, 0xa9, 0x2c, 0xe3, 0x40,
  0x08, 0x42, 0xf2, 0xd2, 0xb7, 0xba, 0xe9, 0xa4, 0x90, 0x46, 0xe6, 0xb1,
  0xb5, 0x3a, 0x6a, 0x9c, 0x3e, 0x31, 0x7f, 0xf2, 0x11, 0x3c, 0x5a, 0x6a,
  0xcc, 0x46, 0xbf, 0x5d, 0xc7, 0x5a, 0x37, 0x10, 0x14, 0x00, 0x53, 0xc9,
  0xc5, 0x5a, 0x9f, 0xb5, 0x55, 0x62, 0xee, 0x60, 0xef, 0xcf, 0x62, 0xed,
  0x64, 0xcc, 0x17, 0x08, 0x12, 0xa6, 0xa1, 0x29, 0x0e, 0xd7, 0xc7, 0xbc,
  0xc7, 0xd0, 0x5e, 0x6a, 0xb3, 0x8c, 0x42, 0xb7, 0xeb, 0x71, 0xae, 0x2e,
  0x55, 0xcd, 0xbf, 0xc0, 0x59, 0xfc, 0x6a, 0xc1, 0x07, 0x34, 0x59, 0x49,
  0x49, 0x5b, 0x4e, 0x0d, 0x54, 0xa5, 0xee, 0xf6, 0xac, 0xca, 0xc8, 0x42,
  0x4e, 0xcd, 0xec, 0x14, 0x30, 0xd9, 0xc7, 0xf8, 0x61, 0xcc, 0x21, 0x38,
  0x33, 0xc2, 0xd7, 0xf6, 0x13, 0x5e, 0x08, 0xab, 0xef, 0x9e, 0xe7, 0x18,
  0x26, 0x72, 0x62, 0x97, 0x5e, 0x3c, 0x9f, 0xcd, 0x24, 0x19, 0x5f, 0xde,
  0x09, 0xaa, 0x2b, 0x45, 0x70, 0xef, 0x2a, 0xaf, 0x66, 0x3d, 0xea, 0x5c,
  0x61, 0xcc, 0x1c, 0x02, 0x11, 0xd0, 0x36, 0x71, 0xa9, 0x90, 0x5f, 0x64,
  0xe4, 0xfd, 0xfe, 0x5f, 0x1b, 0x94, 0xbd, 0xea, 0x60, 0x45, 0xd4, 0x5a,
  0x6e, 0x5f, 0x2d, 0x0f, 0x42, 0x4f, 0x98, 0xdf, 0x32, 0x2f, 0x63, 0x91,
  0x4c, 0x40, 0x91, 0xe4, 0x6d, 0x4b, 0x21, 0xa9, 0x5e, 0x6f, 0xb0, 0x67,
  0x6d, 0x16, 0x05, 0x13, 0xf3, 0xda, 0xe3, 0xde, 0xdb, 0xb9, 0x94, 0x57,
  0xe9, 0x60, 0x23, 0x33, 0xf2, 0x68, 0x50, 0xbe, 0x02, 0xe5, 0xff, 0xff,
  0x04, 0x00, 0x00, 0x00, 0x08, 0x00, 0x00, 0x00, 0x81, 0x78, 0x04, 0x08,
  0x78, 0xeb, 0xa4, 0xd8, 0x16, 0xe5, 0xff, 0xff, 0x04, 0x00, 0x00, 0x00,
  0x04, 0x00, 0x00, 0x00, 0x78, 0x38, 0x00, 0x00, 0x26, 0xe5, 0xff, 0xff,
  0x04, 0x00, 0x00, 0x00, 0x0c, 0x00, 0x00, 0x00, 0x01, 0x00, 0x00, 0x00,
  0x01, 0x00, 0x00, 0x00, 0x01, 0x00, 0x00, 0x00, 0x3e, 0xe5, 0xff, 0xff,
  0x04, 0x00, 0x00, 0x00, 0x0c, 0x00, 0x00, 0x00, 0x00, 0x00, 0x00, 0x00,
  0xff, 0xff, 0xff, 0xff, 0x0a, 0x00, 0x00, 0x00, 0x56, 0xe5, 0xff, 0xff,
  0x04, 0x00, 0x00, 0x00, 0x0c, 0x00, 0x00, 0x00, 0xff, 0xff, 0xff, 0xff,
  0x00, 0x00, 0x00, 0x00, 0x00, 0x00, 0x00, 0x00, 0x6e, 0xe5, 0xff, 0xff,
  0x04, 0x00, 0x00, 0x00, 0x04, 0x00, 0x00, 0x00, 0x00, 0x00, 0x00, 0x00,
  0x7e, 0xe5, 0xff, 0xff, 0x04, 0x00, 0x00, 0x00, 0x0c, 0x00, 0x00, 0x00,
  0x01, 0x00, 0x00, 0x00, 0x00, 0x00, 0x00, 0x00, 0x02, 0x00, 0x00, 0x00,
  0x96, 0xe5, 0xff, 0xff, 0x04, 0x00, 0x00, 0x00, 0x04, 0x00, 0x00, 0x00,
  0x01, 0x00, 0x00, 0x00, 0xa6, 0xe5, 0xff, 0xff, 0x04, 0x00, 0x00, 0x00,
  0x08, 0x00, 0x00, 0x00, 0xff, 0xff, 0xff, 0xff, 0x0a, 0x00, 0x00, 0x00,
  0xba, 0xe5, 0xff, 0xff, 0x04, 0x00, 0x00, 0x00, 0x04, 0x00, 0x00, 0x00,
  0x0a, 0x00, 0x00, 0x00, 0xca, 0xe5, 0xff, 0xff, 0x04, 0x00, 0x00, 0x00,
  0x04, 0x00, 0x00, 0x00, 0x01, 0x00, 0x00, 0x00, 0xda, 0xe5, 0xff, 0xff,
  0x04, 0x00, 0x00, 0x00, 0x04, 0x00, 0x00, 0x00, 0x00, 0x00, 0x00, 0x00,
  0xa0, 0xd2, 0xff, 0xff, 0xa4, 0xd2, 0xff, 0xff, 0x0f, 0x00, 0x00, 0x00,
  0x4d, 0x4c, 0x49, 0x52, 0x20, 0x43, 0x6f, 0x6e, 0x76, 0x65, 0x72, 0x74,
  0x65, 0x64, 0x2e, 0x00, 0x03, 0x00, 0x00, 0x00, 0xec, 0x15, 0x00, 0x00,
  0x6c, 0x13, 0x00, 0x00, 0x04, 0x00, 0x00, 0x00, 0x2e, 0xea, 0xff, 0xff,
  0x14, 0x00, 0x00, 0x00, 0x20, 0x00, 0x00, 0x00, 0x88, 0x04, 0x00, 0x00,
  0xa0, 0x04, 0x00, 0x00, 0xb8, 0x04, 0x00, 0x00, 0x0a, 0x00, 0x00, 0x00,
  0x77, 0x68, 0x69, 0x6c, 0x65, 0x5f, 0x62, 0x6f, 0x64, 0x79, 0x00, 0x00,
  0x17, 0x00, 0x00, 0x00, 0x4c, 0x04, 0x00, 0x00, 0x2c, 0x04, 0x00, 0x00,
  0x0c, 0x04, 0x00, 0x00, 0xd8, 0x03, 0x00, 0x00, 0xa0, 0x03, 0x00, 0x00,
  0x6c, 0x03, 0x00, 0x00, 0x34, 0x03, 0x00, 0x00, 0x00, 0x03, 0x00, 0x00,
  0xcc, 0x02, 0x00, 0x00, 0x88, 0x02, 0x00, 0x00, 0x64, 0x02, 0x00, 0x00,
  0x40, 0x02, 0x00, 0x00, 0x0c, 0x02, 0x00, 0x00, 0xe8, 0x01, 0x00, 0x00,
  0xc4, 0x01, 0x00, 0x00, 0x90, 0x01, 0x00, 0x00, 0x5c, 0x01, 0x00, 0x00,
  0x38, 0x01, 0x00, 0x00, 0x14, 0x01, 0x00, 0x00, 0xe0, 0x00, 0x00, 0x00,
  0xbc, 0x00, 0x00, 0x00, 0x38, 0x00, 0x00, 0x00, 0x04, 0x00, 0x00, 0x00,
  0xc6, 0xe5, 0xff, 0xff, 0x14, 0x00, 0x00, 0x00, 0x00, 0x00, 0x00, 0x0b,
  0x10, 0x00, 0x00, 0x00, 0x14, 0x00, 0x00, 0x00, 0x0e, 0x00, 0x00, 0x00,
  0x6c, 0xd3, 0xff, 0xff, 0x01, 0x00, 0x00, 0x00, 0x24, 0x00, 0x00, 0x00,
  0x02, 0x00, 0x00, 0x00, 0x00, 0x00, 0x00, 0x00, 0x06, 0x00, 0x00, 0x00,
  0xd4, 0xe7, 0xff, 0xff, 0x10, 0x00, 0x00, 0x00, 0x60, 0x00, 0x00, 0x00,
  0x64, 0x00, 0x00, 0x00, 0x13, 0x00, 0x00, 0x00, 0x4d, 0x00, 0x00, 0x00,
  0x11, 0x54, 0x65, 0x6e, 0x73, 0x6f, 0x72, 0x4c, 0x69, 0x73, 0x74, 0x53,
  0x65, 0x74, 0x49, 0x74, 0x65, 0x6d, 0x00, 0x30, 0x12, 0x11, 0x54, 0x65,
  0x6e, 0x73, 0x6f, 0x72, 0x4c, 0x69, 0x73, 0x74, 0x53, 0x65, 0x74, 0x49,
  0x74, 0x65, 0x6d, 0x1a, 0x00, 0x1a, 0x00, 0x1a, 0x00, 0x2a, 0x13, 0x0a,
  0x0d, 0x65, 0x6c, 0x65, 0x6d, 0x65, 0x6e, 0x74, 0x5f, 0x64, 0x74, 0x79,
  0x70, 0x65, 0x12, 0x02, 0x30, 0x01, 0x32, 0x00, 0x00, 0x02, 0x45, 0x33,
  0x14, 0x14, 0x04, 0x28, 0x01, 0x00, 0x00, 0x00, 0x01, 0x00, 0x00, 0x00,
  0x23, 0x00, 0x00, 0x00, 0x03, 0x00, 0x00, 0x00, 0x02, 0x00, 0x00, 0x00,
  0x07, 0x00, 0x00, 0x00, 0x22, 0x00, 0x00, 0x00, 0x96, 0xe7, 0xff, 0xff,
  0x0c, 0x00, 0x00, 0x00, 0x10, 0x00, 0x00, 0x00, 0x07, 0x00, 0x00, 0x00,
  0x01, 0x00, 0x00, 0x00, 0x22, 0x00, 0x00, 0x00, 0x01, 0x00, 0x00, 0x00,
  0x21, 0x00, 0x00, 0x00, 0x96, 0xe6, 0xff, 0xff, 0x14, 0x00, 0x00, 0x00,
  0x00, 0x00, 0x00, 0x15, 0x10, 0x00, 0x00, 0x00, 0x14, 0x00, 0x00, 0x00,
  0x02, 0x00, 0x00, 0x00, 0x3c, 0xd4, 0xff, 0xff, 0x01, 0x00, 0x00, 0x00,
  0x21, 0x00, 0x00, 0x00, 0x02, 0x00, 0x00, 0x00, 0x1b, 0x00, 0x00, 0x00,
  0x20, 0x00, 0x00, 0x00, 0xe6, 0xe7, 0xff, 0xff, 0x0c, 0x00, 0x00, 0x00,
  0x10, 0x00, 0x00, 0x00, 0x12, 0x00, 0x00, 0x00, 0x01, 0x00, 0x00, 0x00,
  0x20, 0x00, 0x00, 0x00, 0x01, 0x00, 0x00, 0x00, 0x1e, 0x00, 0x00, 0x00,
  0x06, 0xe8, 0xff, 0xff, 0x0c, 0x00, 0x00, 0x00, 0x10, 0x00, 0x00, 0x00,
  0x07, 0x00, 0x00, 0x00, 0x01, 0x00, 0x00, 0x00, 0x1f, 0x00, 0x00, 0x00,
  0x01, 0x00, 0x00, 0x00, 0x1e, 0x00, 0x00, 0x00, 0x06, 0xe7, 0xff, 0xff,
  0x14, 0x00, 0x00, 0x00, 0x00, 0x00, 0x00, 0x0b, 0x10, 0x00, 0x00, 0x00,
  0x14, 0x00, 0x00, 0x00, 0x0e, 0x00, 0x00, 0x00, 0xac, 0xd4, 0xff, 0xff,
  0x01, 0x00, 0x00, 0x00, 0x1e, 0x00, 0x00, 0x00, 0x02, 0x00, 0x00, 0x00,
  0x1a, 0x00, 0x00, 0x00, 0x1d, 0x00, 0x00, 0x00, 0x36, 0xe7, 0xff, 0xff,
  0x14, 0x00, 0x00, 0x00, 0x00, 0x00, 0x00, 0x15, 0x10, 0x00, 0x00, 0x00,
  0x14, 0x00, 0x00, 0x00, 0x02, 0x00, 0x00, 0x00, 0xdc, 0xd4, 0xff, 0xff,
  0x01, 0x00, 0x00, 0x00, 0x1d, 0x00, 0x00, 0x00, 0x02, 0x00, 0x00, 0x00,
  0x18, 0x00, 0x00, 0x00, 0x1c, 0x00, 0x00, 0x00, 0x86, 0xe8, 0xff, 0xff,
  0x0c, 0x00, 0x00, 0x00, 0x10, 0x00, 0x00, 0x00, 0x12, 0x00, 0x00, 0x00,
  0x01, 0x00, 0x00, 0x00, 0x1c, 0x00, 0x00, 0x00, 0x01, 0x00, 0x00, 0x00,
  0x16, 0x00, 0x00, 0x00, 0xa6, 0xe8, 0xff, 0xff, 0x0c, 0x00, 0x00, 0x00,
  0x10, 0x00, 0x00, 0x00, 0x11, 0x00, 0x00, 0x00, 0x01, 0x00, 0x00, 0x00,
  0x1b, 0x00, 0x00, 0x00, 0x01, 0x00, 0x00, 0x00, 0x17, 0x00, 0x00, 0x00,
  0xa6, 0xe7, 0xff, 0xff, 0x14, 0x00, 0x00, 0x00, 0x00, 0x00, 0x00, 0x15,
  0x10, 0x00, 0x00, 0x00, 0x14, 0x00, 0x00, 0x00, 0x02, 0x00, 0x00, 0x00,
  0x4c, 0xd5, 0xff, 0xff, 0x01, 0x00, 0x00, 0x00, 0x1a, 0x00, 0x00, 0x00,
  0x02, 0x00, 0x00, 0x00, 0x19, 0x00, 0x00, 0x00, 0x0c, 0x00, 0x00, 0x00,
  0xf6, 0xe8, 0xff, 0xff, 0x0c, 0x00, 0x00, 0x00, 0x10, 0x00, 0x00, 0x00,
  0x11, 0x00, 0x00, 0x00, 0x01, 0x00, 0x00, 0x00, 0x19, 0x00, 0x00, 0x00,
  0x01, 0x00, 0x00, 0x00, 0x15, 0x00, 0x00, 0x00, 0x16, 0xe9, 0xff, 0xff,
  0x0c, 0x00, 0x00, 0x00, 0x10, 0x00, 0x00, 0x00, 0x11, 0x00, 0x00, 0x00,
  0x01, 0x00, 0x00, 0x00, 0x18, 0x00, 0x00, 0x00, 0x01, 0x00, 0x00, 0x00,
  0x14, 0x00, 0x00, 0x00, 0x16, 0xe8, 0xff, 0xff, 0x14, 0x00, 0x00, 0x00,
  0x00, 0x00, 0x00, 0x23, 0x14, 0x00, 0x00, 0x00, 0x24, 0x00, 0x00, 0x00,
  0x10, 0x00, 0x00, 0x00, 0x06, 0xe9, 0xff, 0xff, 0x04, 0x00, 0x00, 0x00,
  0x04, 0x00, 0x00, 0x00, 0x14, 0x00, 0x00, 0x00, 0x15, 0x00, 0x00, 0x00,
  0x16, 0x00, 0x00, 0x00, 0x17, 0x00, 0x00, 0x00, 0x02, 0x00, 0x00, 0x00,
  0x06, 0x00, 0x00, 0x00, 0x13, 0x00, 0x00, 0x00, 0x56, 0xe8, 0xff, 0xff,
  0x14, 0x00, 0x00, 0x00, 0x00, 0x00, 0x00, 0x0b, 0x10, 0x00, 0x00, 0x00,
  0x14, 0x00, 0x00, 0x00, 0x0e, 0x00, 0x00, 0x00, 0xfc, 0xd5, 0xff, 0xff,
  0x01, 0x00, 0x00, 0x00, 0x13, 0x00, 0x00, 0x00, 0x02, 0x00, 0x00, 0x00,
  0x12, 0x00, 0x00, 0x00, 0x08, 0x00, 0x00, 0x00, 0x86, 0xe8, 0xff, 0xff,
  0x14, 0x00, 0x00, 0x00, 0x00, 0x00, 0x00, 0x0b, 0x10, 0x00, 0x00, 0x00,
  0x14, 0x00, 0x00, 0x00, 0x0e, 0x00, 0x00, 0x00, 0x2c, 0xd6, 0xff, 0xff,
  0x01, 0x00, 0x00, 0x00, 0x12, 0x00, 0x00, 0x00, 0x02, 0x00, 0x00, 0x00,
  0x11, 0x00, 0x00, 0x00, 0x0f, 0x00, 0x00, 0x00, 0xb6, 0xe8, 0xff, 0xff,
  0x14, 0x00, 0x00, 0x00, 0x00, 0x00, 0x00, 0x08, 0x10, 0x00, 0x00, 0x00,
  0x14, 0x00, 0x00, 0x00, 0x0c, 0x00, 0x00, 0x00, 0x5c, 0xd6, 0xff, 0xff,
  0x01, 0x00, 0x00, 0x00, 0x11, 0x00, 0x00, 0x00, 0x03, 0x00, 0x00, 0x00,
  0x10, 0x00, 0x00, 0x00, 0x09, 0x00, 0x00, 0x00, 0xff, 0xff, 0xff, 0xff,
  0xea, 0xe8, 0xff, 0xff, 0x14, 0x00, 0x00, 0x00, 0x00, 0x00, 0x00, 0x17,
  0x10, 0x00, 0x00, 0x00, 0x14, 0x00, 0x00, 0x00, 0x0f, 0x00, 0x00, 0x00,
  0x90, 0xd6, 0xff, 0xff, 0x01, 0x00, 0x00, 0x00, 0x10, 0x00, 0x00, 0x00,
  0x02, 0x00, 0x00, 0x00, 0x0d, 0x00, 0x00, 0x00, 0x01, 0x00, 0x00, 0x00,
  0x1a, 0xe9, 0xff, 0xff, 0x14, 0x00, 0x00, 0x00, 0x00, 0x00, 0x00, 0x08,
  0x10, 0x00, 0x00, 0x00, 0x14, 0x00, 0x00, 0x00, 0x0c, 0x00, 0x00, 0x00,
  0xc0, 0xd6, 0xff, 0xff, 0x01, 0x00, 0x00, 0x00, 0x0f, 0x00, 0x00, 0x00,
  0x03, 0x00, 0x00, 0x00, 0x0b, 0x00, 0x00, 0x00, 0x0a, 0x00, 0x00, 0x00,
  0xff, 0xff, 0xff, 0xff, 0x4e, 0xe9, 0xff, 0xff, 0x14, 0x00, 0x00, 0x00,
  0x00, 0x00, 0x00, 0x0b, 0x10, 0x00, 0x00, 0x00, 0x14, 0x00, 0x00, 0x00,
  0x0e, 0x00, 0x00, 0x00, 0xf4, 0xd6, 0xff, 0xff, 0x01, 0x00, 0x00, 0x00,
  0x0e, 0x00, 0x00, 0x00, 0x02, 0x00, 0x00, 0x00, 0x01, 0x00, 0x00, 0x00,
  0x06, 0x00, 0x00, 0x00, 0x3e, 0xe9, 0xff, 0xff, 0x08, 0x00, 0x00, 0x00,
  0x0c, 0x00, 0x00, 0x00, 0x01, 0x00, 0x00, 0x00, 0x0d, 0x00, 0x00, 0x00,
  0x01, 0x00, 0x00, 0x00, 0x05, 0x00, 0x00, 0x00, 0x5a, 0xe9, 0xff, 0xff,
  0x08, 0x00, 0x00, 0x00, 0x0c, 0x00, 0x00, 0x00, 0x01, 0x00, 0x00, 0x00,
  0x0c, 0x00, 0x00, 0x00, 0x01, 0x00, 0x00, 0x00, 0x04, 0x00, 0x00, 0x00,
  0x76, 0xe9, 0xff, 0xff, 0x08, 0x00, 0x00, 0x00, 0x0c, 0x00, 0x00, 0x00,
  0x01, 0x00, 0x00, 0x00, 0x0b, 0x00, 0x00, 0x00, 0x01, 0x00, 0x00, 0x00,
  0x03, 0x00, 0x00, 0x00, 0x06, 0x00, 0x00, 0x00, 0x24, 0x00, 0x00, 0x00,
  0x0e, 0x00, 0x00, 0x00, 0x23, 0x00, 0x00, 0x00, 0x22, 0x00, 0x00, 0x00,
  0x1f, 0x00, 0x00, 0x00, 0x05, 0x00, 0x00, 0x00, 0x06, 0x00, 0x00, 0x00,
  0x00, 0x00, 0x00, 0x00, 0x01, 0x00, 0x00, 0x00, 0x02, 0x00, 0x00, 0x00,
  0x03, 0x00, 0x00, 0x00, 0x04, 0x00, 0x00, 0x00, 0x05, 0x00, 0x00, 0x00,
  0x25, 0x00, 0x00, 0x00, 0x64, 0x0e, 0x00, 0x00, 0x30, 0x0e, 0x00, 0x00,
  0xfc, 0x0d, 0x00, 0x00, 0xb4, 0x0d, 0x00, 0x00, 0x6c, 0x0d, 0x00, 0x00,
  0x1c, 0x0d, 0x00, 0x00, 0xd0, 0x0c, 0x00, 0x00, 0x9c, 0x0c, 0x00, 0x00,
  0x20, 0x0c, 0x00, 0x00, 0xbc, 0x0b, 0x00, 0x00, 0x58, 0x0b, 0x00, 0x00,
  0xe4, 0x0a, 0x00, 0x00, 0x70, 0x0a, 0x00, 0x00, 0xf8, 0x09, 0x00, 0x00,
  0xc0, 0x09, 0x00, 0x00, 0x4c, 0x09, 0x00, 0x00, 0xc0, 0x08, 0x00, 0x00,
  0x4c, 0x08, 0x00, 0x00, 0xe0, 0x07, 0x00, 0x00, 0x6c, 0x07, 0x00, 0x00,
  0xd8, 0x06, 0x00, 0x00, 0x44, 0x06, 0x00, 0x00, 0xb0, 0x05, 0x00, 0x00,
  0x1c, 0x05, 0x00, 0x00, 0xa8, 0x04, 0x00, 0x00, 0x34, 0x04, 0x00, 0x00,
  0xc8, 0x03, 0x00, 0x00, 0x54, 0x03, 0x00, 0x00, 0xe8, 0x02, 0x00, 0x00,
  0x7c, 0x02, 0x00, 0x00, 0x10, 0x02, 0x00, 0x00, 0xc0, 0x01, 0x00, 0x00,
  0x50, 0x01, 0x00, 0x00, 0xe4, 0x00, 0x00, 0x00, 0x94, 0x00, 0x00, 0x00,
  0x3c, 0x00, 0x00, 0x00, 0x04, 0x00, 0x00, 0x00, 0x62, 0xd8, 0xff, 0xff,
  0x00, 0x00, 0x00, 0x01, 0x14, 0x00, 0x00, 0x00, 0x14, 0x00, 0x00, 0x00,
  0x5a, 0x00, 0x00, 0x00, 0x00, 0x00, 0x00, 0x02, 0x18, 0x00, 0x00, 0x00,
  0x4c, 0xd8, 0xff, 0xff, 0x0b, 0x00, 0x00, 0x00, 0x77, 0x68, 0x69, 0x6c,
  0x65, 0x2f, 0x61, 0x64, 0x64, 0x5f, 0x33, 0x00, 0x00, 0x00, 0x00, 0x00,
  0x96, 0xd8, 0xff, 0xff, 0x00, 0x00, 0x00, 0x01, 0x14, 0x00, 0x00, 0x00,
  0x14, 0x00, 0x00, 0x00, 0x59, 0x00, 0x00, 0x00, 0x00, 0x00, 0x00, 0x0e,
  0x38, 0x00, 0x00, 0x00, 0x80, 0xd8, 0xff, 0xff, 0x2a, 0x00, 0x00, 0x00,
  0x77, 0x68, 0x69, 0x6c, 0x65, 0x2f, 0x54, 0x65, 0x6e, 0x73, 0x6f, 0x72,
  0x41, 0x72, 0x72, 0x61, 0x79, 0x56, 0x32, 0x57, 0x72, 0x69, 0x74, 0x65,
  0x2f, 0x54, 0x65, 0x6e, 0x73, 0x6f, 0x72, 0x4c, 0x69, 0x73, 0x74, 0x53,
  0x65, 0x74, 0x49, 0x74, 0x65, 0x6d, 0x00, 0x00, 0x00, 0x00, 0x00, 0x00,
  0xce, 0xe2, 0xff, 0xff, 0x00, 0x00, 0x00, 0x01, 0x14, 0x00, 0x00, 0x00,
  0x1c, 0x00, 0x00, 0x00, 0x1c, 0x00, 0x00, 0x00, 0x58, 0x00, 0x00, 0x00,
  0x28, 0x00, 0x00, 0x00, 0x02, 0x00, 0x00, 0x00, 0xff, 0xff, 0xff, 0xff,
  0x0a, 0x00, 0x00, 0x00, 0xe0, 0xd8, 0xff, 0xff, 0x0f, 0x00, 0x00, 0x00,
  0x74, 0x66, 0x6c, 0x2e, 0x64, 0x65, 0x71, 0x75, 0x61, 0x6e, 0x74, 0x69,
  0x7a, 0x65, 0x32, 0x00, 0x02, 0x00, 0x00, 0x00, 0x01, 0x00, 0x00, 0x00,
  0x0a, 0x00, 0x00, 0x00, 0xc6, 0xd8, 0xff, 0xff, 0x00, 0x00, 0x00, 0x01,
  0x18, 0x00, 0x00, 0x00, 0x20, 0x00, 0x00, 0x00, 0x3c, 0x00, 0x00, 0x00,
  0x57, 0x00, 0x00, 0x00, 0x00, 0x00, 0x00, 0x09, 0x40, 0x00, 0x00, 0x00,
  0x02, 0x00, 0x00, 0x00, 0xff, 0xff, 0xff, 0xff, 0x0a, 0x00, 0x00, 0x00,
  0xac, 0xd8, 0xff, 0xff, 0x08, 0x00, 0x00, 0x00, 0x10, 0x00, 0x00, 0x00,
  0x01, 0x00, 0x00, 0x00, 0xfa, 0xff, 0xff, 0xff, 0xff, 0xff, 0xff, 0xff,
  0x01, 0x00, 0x00, 0x00, 0x4b, 0x67, 0xe8, 0x3b, 0x0b, 0x00, 0x00, 0x00,
  0x77, 0x68, 0x69, 0x6c, 0x65, 0x2f, 0x6d, 0x75, 0x6c, 0x5f, 0x32, 0x00,
  0x02, 0x00, 0x00, 0x00, 0x01, 0x00, 0x00, 0x00, 0x0a, 0x00, 0x00, 0x00,
  0x2e, 0xd9, 0xff, 0xff, 0x00, 0x00, 0x00, 0x01, 0x18, 0x00, 0x00, 0x00,
  0x20, 0x00, 0x00, 0x00, 0x3c, 0x00, 0x00, 0x00, 0x56, 0x00, 0x00, 0x00,
  0x00, 0x00, 0x00, 0x09, 0x44, 0x00, 0x00, 0x00, 0x02, 0x00, 0x00, 0x00,
  0xff, 0xff, 0xff, 0xff, 0x0a, 0x00, 0x00, 0x00, 0x14, 0xd9, 0xff, 0xff,
  0x08, 0x00, 0x00, 0x00, 0x10, 0x00, 0x00, 0x00, 0x01, 0x00, 0x00, 0x00,
  0x00, 0x00, 0x00, 0x00, 0x00, 0x00, 0x00, 0x00, 0x01, 0x00, 0x00, 0x00,
  0x00, 0x00, 0x00, 0x3c, 0x0c, 0x00, 0x00, 0x00, 0x77, 0x68, 0x69, 0x6c,
  0x65, 0x2f, 0x54, 0x61, 0x6e, 0x68, 0x5f, 0x31, 0x00, 0x00, 0x00, 0x00,
  0x02, 0x00, 0x00, 0x00, 0x01, 0x00, 0x00, 0x00, 0x0a, 0x00, 0x00, 0x00,
  0xee, 0xe3, 0xff, 0xff, 0x00, 0x00, 0x00, 0x01, 0x14, 0x00, 0x00, 0x00,
  0x1c, 0x00, 0x00, 0x00, 0x1c, 0x00, 0x00, 0x00, 0x55, 0x00, 0x00, 0x00,
  0x28, 0x00, 0x00, 0x00, 0x02, 0x00, 0x00, 0x00, 0xff, 0xff, 0xff, 0xff,
  0x0a, 0x00, 0x00, 0x00, 0x00, 0xda, 0xff, 0xff, 0x0f, 0x00, 0x00, 0x00,
  0x74, 0x66, 0x6c, 0x2e, 0x64, 0x65, 0x71, 0x75, 0x61, 0x6e, 0x74, 0x69,
  0x7a, 0x65, 0x31, 0x00, 0x02, 0x00, 0x00, 0x00, 0x01, 0x00, 0x00, 0x00,
  0x0a, 0x00, 0x00, 0x00, 0xe6, 0xd9, 0xff, 0xff, 0x00, 0x00, 0x00, 0x01,
  0x18, 0x00, 0x00, 0x00, 0x20, 0x00, 0x00, 0x00, 0x3c, 0x00, 0x00, 0x00,
  0x54, 0x00, 0x00, 0x00, 0x00, 0x00, 0x00, 0x09, 0x40, 0x00, 0x00, 0x00,
  0x02, 0x00, 0x00, 0x00, 0xff, 0xff, 0xff, 0xff, 0x0a, 0x00, 0x00, 0x00,
  0xcc, 0xd9, 0xff, 0xff, 0x08, 0x00, 0x00, 0x00, 0x10, 0x00, 0x00, 0x00,
  0x01, 0x00, 0x00, 0x00, 0xb6, 0xff, 0xff, 0xff, 0xff, 0xff, 0xff, 0xff,
  0x01, 0x00, 0x00, 0x00, 0x86, 0xb7, 0x3f, 0x3d, 0x0b, 0x00, 0x00, 0x00,
  0x77, 0x68, 0x69, 0x6c, 0x65, 0x2f, 0x61, 0x64, 0x64, 0x5f, 0x31, 0x00,
  0x02, 0x00, 0x00, 0x00, 0x01, 0x00, 0x00, 0x00, 0x0a, 0x00, 0x00, 0x00,
  0x4e, 0xda, 0xff, 0xff, 0x00, 0x00, 0x00, 0x01, 0x18, 0x00, 0x00, 0x00,
  0x20, 0x00, 0x00, 0x00, 0x3c, 0x00, 0x00, 0x00, 0x53, 0x00, 0x00, 0x00,
  0x00, 0x00, 0x00, 0x09, 0x40, 0x00, 0x00, 0x00, 0x02, 0x00, 0x00, 0x00,
  0xff, 0xff, 0xff, 0xff, 0x0a, 0x00, 0x00, 0x00, 0x34, 0xda, 0xff, 0xff,
  0x08, 0x00, 0x00, 0x00, 0x10, 0x00, 0x00, 0x00, 0x01, 0x00, 0x00, 0x00,
  0xf8, 0xff, 0xff, 0xff, 0xff, 0xff, 0xff, 0xff, 0x01, 0x00, 0x00, 0x00,
  0xb4, 0xaf, 0xed, 0x3b, 0x0b, 0x00, 0x00, 0x00, 0x77, 0x68, 0x69, 0x6c,
  0x65, 0x2f, 0x6d, 0x75, 0x6c, 0x5f, 0x31, 0x00, 0x02, 0x00, 0x00, 0x00,
  0x01, 0x00, 0x00, 0x00, 0x0a, 0x00, 0x00, 0x00, 0xb6, 0xda, 0xff, 0xff,
  0x00, 0x00, 0x00, 0x01, 0x18, 0x00, 0x00, 0x00, 0x20, 0x00, 0x00, 0x00,
  0x3c, 0x00, 0x00, 0x00, 0x52, 0x00, 0x00, 0x00, 0x00, 0x00, 0x00, 0x09,
  0x40, 0x00, 0x00, 0x00, 0x02, 0x00, 0x00, 0x00, 0xff, 0xff, 0xff, 0xff,
  0x0a, 0x00, 0x00, 0x00, 0x9c, 0xda, 0xff, 0xff, 0x08, 0x00, 0x00, 0x00,
  0x10, 0x00, 0x00, 0x00, 0x01, 0x00, 0x00, 0x00, 0x00, 0x00, 0x00, 0x00,
  0x00, 0x00, 0x00, 0x00, 0x01, 0x00, 0x00, 0x00, 0x00, 0x00, 0x00, 0x3c,
  0x0a, 0x00, 0x00, 0x00, 0x77, 0x68, 0x69, 0x6c, 0x65, 0x2f, 0x54, 0x61,
  0x6e, 0x68, 0x00, 0x00, 0x02, 0x00, 0x00, 0x00, 0x01, 0x00, 0x00, 0x00,
  0x0a, 0x00, 0x00, 0x00, 0x1e, 0xdb, 0xff, 0xff, 0x00, 0x00, 0x00, 0x01,
  0x18, 0x00, 0x00, 0x00, 0x20, 0x00, 0x00, 0x00, 0x40, 0x00, 0x00, 0x00,
  0x51, 0x00, 0x00, 0x00, 0x00, 0x00, 0x00, 0x09, 0x48, 0x00, 0x00, 0x00,
  0x02, 0x00, 0x00, 0x00, 0xff, 0xff, 0xff, 0xff, 0x0a, 0x00, 0x00, 0x00,
  0x04, 0xdb, 0xff, 0xff, 0x08, 0x00, 0x00, 0x00, 0x14, 0x00, 0x00, 0x00,
  0x01, 0x00, 0x00, 0x00, 0x80, 0xff, 0xff, 0xff, 0xff, 0xff, 0xff, 0xff,
  0x00, 0x00, 0x00, 0x00, 0x01, 0x00, 0x00, 0x00, 0x00, 0x00, 0x80, 0x3b,
  0x0f, 0x00, 0x00, 0x00, 0x77, 0x68, 0x69, 0x6c, 0x65, 0x2f, 0x53, 0x69,
  0x67, 0x6d, 0x6f, 0x69, 0x64, 0x5f, 0x32, 0x00, 0x02, 0x00, 0x00, 0x00,
  0x01, 0x00, 0x00, 0x00, 0x0a, 0x00, 0x00, 0x00, 0x8e, 0xdb, 0xff, 0xff,
  0x00, 0x00, 0x00, 0x01, 0x18, 0x00, 0x00, 0x00, 0x20, 0x00, 0x00, 0x00,
  0x3c, 0x00, 0x00, 0x00, 0x50, 0x00, 0x00, 0x00, 0x00, 0x00, 0x00, 0x09,
  0x40, 0x00, 0x00, 0x00, 0x02, 0x00, 0x00, 0x00, 0xff, 0xff, 0xff, 0xff,
  0x0a, 0x00, 0x00, 0x00, 0x74, 0xdb, 0xff, 0xff, 0x08, 0x00, 0x00, 0x00,
  0x10, 0x00, 0x00, 0x00, 0x01, 0x00, 0x00, 0x00, 0xb1, 0xff, 0xff, 0xff,
  0xff, 0xff, 0xff, 0xff, 0x01, 0x00, 0x00, 0x00, 0x2f, 0x3e, 0x2f, 0x3d,
  0x09, 0x00, 0x00, 0x00, 0x77, 0x68, 0x69, 0x6c, 0x65, 0x2f, 0x6d, 0x75,
  0x6c, 0x00, 0x00, 0x00, 0x02, 0x00, 0x00, 0x00, 0x01, 0x00, 0x00, 0x00,
  0x0a, 0x00, 0x00, 0x00, 0xf6, 0xdb, 0xff, 0xff, 0x00, 0x00, 0x00, 0x01,
  0x18, 0x00, 0x00, 0x00, 0x20, 0x00, 0x00, 0x00, 0x40, 0x00, 0x00, 0x00,
  0x4f, 0x00, 0x00, 0x00, 0x00, 0x00, 0x00, 0x09, 0x48, 0x00, 0x00, 0x00,
  0x02, 0x00, 0x00, 0x00, 0xff, 0xff, 0xff, 0xff, 0x0a, 0x00, 0x00, 0x00,
  0xdc, 0xdb, 0xff, 0xff, 0x08, 0x00, 0x00, 0x00, 0x14, 0x00, 0x00, 0x00,
  0x01, 0x00, 0x00, 0x00, 0x80, 0xff, 0xff, 0xff, 0xff, 0xff, 0xff, 0xff,
  0x00, 0x00, 0x00, 0x00, 0x01, 0x00, 0x00, 0x00, 0x00, 0x00, 0x80, 0x3b,
  0x0f, 0x00, 0x00, 0x00, 0x77, 0x68, 0x69, 0x6c, 0x65, 0x2f, 0x53, 0x69,
  0x67, 0x6d, 0x6f, 0x69, 0x64, 0x5f, 0x31, 0x00, 0x02, 0x00, 0x00, 0x00,
  0x01, 0x00, 0x00, 0x00, 0x0a, 0x00, 0x00, 0x00, 0x66, 0xdc, 0xff, 0xff,
  0x00, 0x00, 0x00, 0x01, 0x18, 0x00, 0x00, 0x00, 0x20, 0x00, 0x00, 0x00,
  0x40, 0x00, 0x00, 0x00, 0x4e, 0x00, 0x00, 0x00, 0x00, 0x00, 0x00, 0x09,
  0x48, 0x00, 0x00, 0x00, 0x02, 0x00, 0x00, 0x00, 0xff, 0xff, 0xff, 0xff,
  0x0a, 0x00, 0x00, 0x00, 0x4c, 0xdc, 0xff, 0xff, 0x08, 0x00, 0x00, 0x00,
  0x14, 0x00, 0x00, 0x00, 0x01, 0x00, 0x00, 0x00, 0x80, 0xff, 0xff, 0xff,
  0xff, 0xff, 0xff, 0xff, 0x00, 0x00, 0x00, 0x00, 0x01, 0x00, 0x00, 0x00,
  0x00, 0x00, 0x80, 0x3b, 0x0d, 0x00, 0x00, 0x00, 0x77, 0x68, 0x69, 0x6c,
  0x65, 0x2f, 0x53, 0x69, 0x67, 0x6d, 0x6f, 0x69, 0x64, 0x00, 0x00, 0x00,
  0x02, 0x00, 0x00, 0x00, 0x01, 0x00, 0x00, 0x00, 0x0a, 0x00, 0x00, 0x00,
  0xd6, 0xdc, 0xff, 0xff, 0x00, 0x00, 0x00, 0x01, 0x18, 0x00, 0x00, 0x00,
  0x20, 0x00, 0x00, 0x00, 0x3c, 0x00, 0x00, 0x00, 0x4d, 0x00, 0x00, 0x00,
  0x00, 0x00, 0x00, 0x09, 0x68, 0x00, 0x00, 0x00, 0x02, 0x00, 0x00, 0x00,
  0xff, 0xff, 0xff, 0xff, 0x0a, 0x00, 0x00, 0x00, 0xbc, 0xdc, 0xff, 0xff,
  0x08, 0x00, 0x00, 0x00, 0x10, 0x00, 0x00, 0x00, 0x01, 0x00, 0x00, 0x00,
  0xf4, 0xff, 0xff, 0xff, 0xff, 0xff, 0xff, 0xff, 0x01, 0x00, 0x00, 0x00,
  0x3e, 0xa0, 0x37, 0x3d, 0x33, 0x00, 0x00, 0x00, 0x77, 0x68, 0x69, 0x6c,
  0x65, 0x2f, 0x73, 0x70, 0x6c, 0x69, 0x74, 0x3b, 0x77, 0x68, 0x69, 0x6c,
  0x65, 0x2f, 0x73, 0x70, 0x6c, 0x69, 0x74, 0x31, 0x3b, 0x77, 0x68, 0x69,
  0x6c, 0x65, 0x2f, 0x73, 0x70, 0x6c, 0x69, 0x74, 0x32, 0x3b, 0x77, 0x68,
  0x69, 0x6c, 0x65, 0x2f, 0x73, 0x70, 0x6c, 0x69, 0x74, 0x33, 0x33, 0x00,
  0x02, 0x00, 0x00, 0x00, 0x01, 0x00, 0x00, 0x00, 0x0a, 0x00, 0x00, 0x00,
  0x66, 0xdd, 0xff, 0xff, 0x00, 0x00, 0x00, 0x01, 0x18, 0x00, 0x00, 0x00,
  0x20, 0x00, 0x00, 0x00, 0x3c, 0x00, 0x00, 0x00, 0x4c, 0x00, 0x00, 0x00,
  0x00, 0x00, 0x00, 0x09, 0x68, 0x00, 0x00, 0x00, 0x02, 0x00, 0x00, 0x00,
  0xff, 0xff, 0xff, 0xff, 0x0a, 0x00, 0x00, 0x00, 0x4c, 0xdd, 0xff, 0xff,
  0x08, 0x00, 0x00, 0x00, 0x10, 0x00, 0x00, 0x00, 0x01, 0x00, 0x00, 0x00,
  0xf4, 0xff, 0xff, 0xff, 0xff, 0xff, 0xff, 0xff, 0x01, 0x00, 0x00, 0x00,
  0x3e, 0xa0, 0x37, 0x3d, 0x33, 0x00, 0x00, 0x00, 0x77, 0x68, 0x69, 0x6c,
  0x65, 0x2f, 0x73, 0x70, 0x6c, 0x69, 0x74, 0x3b, 0x77, 0x68, 0x69, 0x6c,
  0x65, 0x2f, 0x73, 0x70, 0x6c, 0x69, 0x74, 0x31, 0x3b, 0x77, 0x68, 0x69,
  0x6c, 0x65, 0x2f, 0x73, 0x70, 0x6c, 0x69, 0x74, 0x32, 0x3b, 0x77, 0x68,
  0x69, 0x6c, 0x65, 0x2f, 0x73, 0x70, 0x6c, 0x69, 0x74, 0x33, 0x32, 0x00,
  0x02, 0x00, 0x00, 0x00, 0x01, 0x00, 0x00, 0x00, 0x0a, 0x00, 0x00, 0x00,
  0xf6, 0xdd, 0xff, 0xff, 0x00, 0x00, 0x00, 0x01, 0x18, 0x00, 0x00, 0x00,
  0x20, 0x00, 0x00, 0x00, 0x3c, 0x00, 0x00, 0x00, 0x4b, 0x00, 0x00, 0x00,
  0x00, 0x00, 0x00, 0x09, 0x68, 0x00, 0x00, 0x00, 0x02, 0x00, 0x00, 0x00,
  0xff, 0xff, 0xff, 0xff, 0x0a, 0x00, 0x00, 0x00, 0xdc, 0xdd, 0xff, 0xff,
  0x08, 0x00, 0x00, 0x00, 0x10, 0x00, 0x00, 0x00, 0x01, 0x00, 0x00, 0x00,
  0xf4, 0xff, 0xff, 0xff, 0xff, 0xff, 0xff, 0xff, 0x01, 0x00, 0x00, 0x00,
  0x3e, 0xa0, 0x37, 0x3d, 0x33, 0x00, 0x00, 0x00, 0x77, 0x68, 0x69, 0x6c,
  0x65, 0x2f, 0x73, 0x70, 0x6c, 0x69, 0x74, 0x3b, 0x77, 0x68, 0x69, 0x6c,
  0x65, 0x2f, 0x73, 0x70, 0x6c, 0x69, 0x74, 0x31, 0x3b, 0x77, 0x68, 0x69,
  0x6c, 0x65, 0x2f, 0x73, 0x70, 0x6c, 0x69, 0x74, 0x32, 0x3b, 0x77, 0x68,
  0x69, 0x6c, 0x65, 0x2f, 0x73, 0x70, 0x6c, 0x69, 0x74, 0x33, 0x31, 0x00,
  0x02, 0x00, 0x00, 0x00, 0x01, 0x00, 0x00, 0x00, 0x0a, 0x00, 0x00, 0x00,
  0x86, 0xde, 0xff, 0xff, 0x00, 0x00, 0x00, 0x01, 0x18, 0x00, 0x00, 0x00,
  0x20, 0x00, 0x00, 0x00, 0x3c, 0x00, 0x00, 0x00, 0x4a, 0x00, 0x00, 0x00,
  0x00, 0x00, 0x00, 0x09, 0x68, 0x00, 0x00, 0x00, 0x02, 0x00, 0x00, 0x00,
  0xff, 0xff, 0xff, 0xff, 0x0a, 0x00, 0x00, 0x00, 0x6c, 0xde, 0xff, 0xff,
  0x08, 0x00, 0x00, 0x00, 0x10, 0x00, 0x00, 0x00, 0x01, 0x00, 0x00, 0x00,
  0xf4, 0xff, 0xff, 0xff, 0xff, 0xff, 0xff, 0xff, 0x01, 0x00, 0x00, 0x00,
  0x3e, 0xa0, 0x37, 0x3d, 0x32, 0x00, 0x00, 0x00, 0x77, 0x68, 0x69, 0x6c,
  0x65, 0x2f, 0x73, 0x70, 0x6c, 0x69, 0x74, 0x3b, 0x77, 0x68, 0x69, 0x6c,
  0x65, 0x2f, 0x73, 0x70, 0x6c, 0x69, 0x74, 0x31, 0x3b, 0x77, 0x68, 0x69,
  0x6c, 0x65, 0x2f, 0x73, 0x70, 0x6c, 0x69, 0x74, 0x32, 0x3b, 0x77, 0x68,
  0x69, 0x6c, 0x65, 0x2f, 0x73, 0x70, 0x6c, 0x69, 0x74, 0x33, 0x00, 0x00,
  0x02, 0x00, 0x00, 0x00, 0x01, 0x00, 0x00, 0x00, 0x0a, 0x00, 0x00, 0x00,
  0x16, 0xdf, 0xff, 0xff, 0x00, 0x00, 0x00, 0x01, 0x18, 0x00, 0x00, 0x00,
  0x20, 0x00, 0x00, 0x00, 0x40, 0x00, 0x00, 0x00, 0x49, 0x00, 0x00, 0x00,
  0x00, 0x00, 0x00, 0x09, 0x48, 0x00, 0x00, 0x00, 0x02, 0x00, 0x00, 0x00,
  0xff, 0xff, 0xff, 0xff, 0x28, 0x00, 0x00, 0x00, 0xfc, 0xde, 0xff, 0xff,
  0x08, 0x00, 0x00, 0x00, 0x14, 0x00, 0x00, 0x00, 0x01, 0x00, 0x00, 0x00,
  0xf4, 0xff, 0xff, 0xff, 0xff, 0xff, 0xff, 0xff, 0x00, 0x00, 0x00, 0x00,
  0x01, 0x00, 0x00, 0x00, 0x3e, 0xa0, 0x37, 0x3d, 0x0d, 0x00, 0x00, 0x00,
  0x77, 0x68, 0x69, 0x6c, 0x65, 0x2f, 0x42, 0x69, 0x61, 0x73, 0x41, 0x64,
  0x64, 0x00, 0x00, 0x00, 0x02, 0x00, 0x00, 0x00, 0x01, 0x00, 0x00, 0x00,
  0x28, 0x00, 0x00, 0x00, 0x86, 0xdf, 0xff, 0xff, 0x00, 0x00, 0x00, 0x01,
  0x18, 0x00, 0x00, 0x00, 0x20, 0x00, 0x00, 0x00, 0x3c, 0x00, 0x00, 0x00,
  0x48, 0x00, 0x00, 0x00, 0x00, 0x00, 0x00, 0x09, 0x40, 0x00, 0x00, 0x00,
  0x02, 0x00, 0x00, 0x00, 0xff, 0xff, 0xff, 0xff, 0x28, 0x00, 0x00, 0x00,
  0x6c, 0xdf, 0xff, 0xff, 0x08, 0x00, 0x00, 0x00, 0x10, 0x00, 0x00, 0x00,
  0x01, 0x00, 0x00, 0x00, 0xff, 0xff, 0xff, 0xff, 0xff, 0xff, 0xff, 0xff,
  0x01, 0x00, 0x00, 0x00, 0xd5, 0xd2, 0x27, 0x3d, 0x09, 0x00, 0x00, 0x00,
  0x77, 0x68, 0x69, 0x6c, 0x65, 0x2f, 0x61, 0x64, 0x64, 0x00, 0x00, 0x00,
  0x02, 0x00, 0x00, 0x00, 0x01, 0x00, 0x00, 0x00, 0x28, 0x00, 0x00, 0x00,
  0xee, 0xdf, 0xff, 0xff, 0x00, 0x00, 0x00, 0x01, 0x18, 0x00, 0x00, 0x00,
  0x20, 0x00, 0x00, 0x00, 0x40, 0x00, 0x00, 0x00, 0x47, 0x00, 0x00, 0x00,
  0x00, 0x00, 0x00, 0x09, 0x48, 0x00, 0x00, 0x00, 0x02, 0x00, 0x00, 0x00,
  0xff, 0xff, 0xff, 0xff, 0x28, 0x00, 0x00, 0x00, 0xd4, 0xdf, 0xff, 0xff,
  0x08, 0x00, 0x00, 0x00, 0x14, 0x00, 0x00, 0x00, 0x01, 0x00, 0x00, 0x00,
  0xfd, 0xff, 0xff, 0xff, 0xff, 0xff, 0xff, 0xff, 0x00, 0x00, 0x00, 0x00,
  0x01, 0x00, 0x00, 0x00, 0x13, 0x1f, 0x25, 0x3d, 0x0d, 0x00, 0x00, 0x00,
  0x77, 0x68, 0x69, 0x6c, 0x65, 0x2f, 0x4d, 0x61, 0x74, 0x4d, 0x75, 0x6c,
  0x31, 0x00, 0x00, 0x00, 0x02, 0x00, 0x00, 0x00, 0x01, 0x00, 0x00, 0x00,
  0x28, 0x00, 0x00, 0x00, 0x5e, 0xe0, 0xff, 0xff, 0x00, 0x00, 0x00, 0x01,
  0x18, 0x00, 0x00, 0x00, 0x20, 0x00, 0x00, 0x00, 0x3c, 0x00, 0x00, 0x00,
  0x46, 0x00, 0x00, 0x00, 0x00, 0x00, 0x00, 0x09, 0x60, 0x00, 0x00, 0x00,
  0x02, 0x00, 0x00, 0x00, 0xff, 0xff, 0xff, 0xff, 0x04, 0x00, 0x00, 0x00,
  0x44, 0xe0, 0xff, 0xff, 0x08, 0x00, 0x00, 0x00, 0x10, 0x00, 0x00, 0x00,
  0x01, 0x00, 0x00, 0x00, 0x22, 0x00, 0x00, 0x00, 0x00, 0x00, 0x00, 0x00,
  0x01, 0x00, 0x00, 0x00, 0x5d, 0xfb, 0x63, 0x3d, 0x29, 0x00, 0x00, 0x00,
  0x77, 0x68, 0x69, 0x6c, 0x65, 0x2f, 0x54, 0x65, 0x6e, 0x73, 0x6f, 0x72,
  0x41, 0x72, 0x72, 0x61, 0x79, 0x56, 0x32, 0x52, 0x65, 0x61, 0x64, 0x2f,
  0x54, 0x65, 0x6e, 0x73, 0x6f, 0x72, 0x4c, 0x69, 0x73, 0x74, 0x47, 0x65,
  0x74, 0x49, 0x74, 0x65, 0x6d, 0x00, 0x00, 0x00, 0x02, 0x00, 0x00, 0x00,
  0x01, 0x00, 0x00, 0x00, 0x04, 0x00, 0x00, 0x00, 0xe6, 0xe0, 0xff, 0xff,
  0x00, 0x00, 0x00, 0x01, 0x18, 0x00, 0x00, 0x00, 0x20, 0x00, 0x00, 0x00,
  0x40, 0x00, 0x00, 0x00, 0x45, 0x00, 0x00, 0x00, 0x00, 0x00, 0x00, 0x09,
  0x48, 0x00, 0x00, 0x00, 0x02, 0x00, 0x00, 0x00, 0xff, 0xff, 0xff, 0xff,
  0x28, 0x00, 0x00, 0x00, 0xcc, 0xe0, 0xff, 0xff, 0x08, 0x00, 0x00, 0x00,
  0x14, 0x00, 0x00, 0x00, 0x01, 0x00, 0x00, 0x00, 0xec, 0xff, 0xff, 0xff,
  0xff, 0xff, 0xff, 0xff, 0x00, 0x00, 0x00, 0x00, 0x01, 0x00, 0x00, 0x00,
  0x1d, 0x09, 0xb8, 0x3b, 0x0f, 0x00, 0x00, 0x00, 0x77, 0x68, 0x69, 0x6c,
  0x65, 0x2f, 0x4d, 0x61, 0x74, 0x4d, 0x75, 0x6c, 0x5f, 0x31, 0x31, 0x00,
  0x02, 0x00, 0x00, 0x00, 0x01, 0x00, 0x00, 0x00, 0x28, 0x00, 0x00, 0x00,
  0xc6, 0xe1, 0xff, 0xff, 0x00, 0x00, 0x00, 0x01, 0x14, 0x00, 0x00, 0x00,
  0x14, 0x00, 0x00, 0x00, 0x44, 0x00, 0x00, 0x00, 0x00, 0x00, 0x00, 0x02,
  0x18, 0x00, 0x00, 0x00, 0xb0, 0xe1, 0xff, 0xff, 0x0b, 0x00, 0x00, 0x00,
  0x77, 0x68, 0x69, 0x6c, 0x65, 0x2f, 0x61, 0x64, 0x64, 0x5f, 0x32, 0x00,
  0x00, 0x00, 0x00, 0x00, 0x8a, 0xe1, 0xff, 0xff, 0x00, 0x00, 0x00, 0x01,
  0x18, 0x00, 0x00, 0x00, 0x24, 0x00, 0x00, 0x00, 0x40, 0x00, 0x00, 0x00,
  0x43, 0x00, 0x00, 0x00, 0x00, 0x00, 0x00, 0x09, 0x48, 0x00, 0x00, 0x00,
  0x03, 0x00, 0x00, 0x00, 0x90, 0x01, 0x00, 0x00, 0xff, 0xff, 0xff, 0xff,
  0x04, 0x00, 0x00, 0x00, 0x74, 0xe1, 0xff, 0xff, 0x08, 0x00, 0x00, 0x00,
  0x10, 0x00, 0x00, 0x00, 0x01, 0x00, 0x00, 0x00, 0x22, 0x00, 0x00, 0x00,
  0x00, 0x00, 0x00, 0x00, 0x01, 0x00, 0x00, 0x00, 0x5d, 0xfb, 0x63, 0x3d,
  0x0d, 0x00, 0x00, 0x00, 0x74, 0x66, 0x6c, 0x2e, 0x71, 0x75, 0x61, 0x6e,
  0x74, 0x69, 0x7a, 0x65, 0x34, 0x00, 0x00, 0x00, 0x03, 0x00, 0x00, 0x00,
  0x90, 0x01, 0x00, 0x00, 0x01, 0x00, 0x00, 0x00, 0x04, 0x00, 0x00, 0x00,
  0xfe, 0xe1, 0xff, 0xff, 0x00, 0x00, 0x00, 0x01, 0x18, 0x00, 0x00, 0x00,
  0x20, 0x00, 0x00, 0x00, 0x40, 0x00, 0x00, 0x00, 0x42, 0x00, 0x00, 0x00,
  0x00, 0x00, 0x00, 0x09, 0x48, 0x00, 0x00, 0x00, 0x02, 0x00, 0x00, 0x00,
  0xff, 0xff, 0xff, 0xff, 0x0a, 0x00, 0x00, 0x00, 0xe4, 0xe1, 0xff, 0xff,
  0x08, 0x00, 0x00, 0x00, 0x14, 0x00, 0x00, 0x00, 0x01, 0x00, 0x00, 0x00,
  0xb6, 0xff, 0xff, 0xff, 0xff, 0xff, 0xff, 0xff, 0x00, 0x00, 0x00, 0x00,
  0x01, 0x00, 0x00, 0x00, 0x86, 0xb7, 0x3f, 0x3d, 0x0d, 0x00, 0x00, 0x00,
  0x74, 0x66, 0x6c, 0x2e, 0x71, 0x75, 0x61, 0x6e, 0x74, 0x69, 0x7a, 0x65,
  0x33, 0x00, 0x00, 0x00, 0x02, 0x00, 0x00, 0x00, 0x01, 0x00, 0x00, 0x00,
  0x0a, 0x00, 0x00, 0x00, 0x6e, 0xe2, 0xff, 0xff, 0x00, 0x00, 0x00, 0x01,
  0x18, 0x00, 0x00, 0x00, 0x20, 0x00, 0x00, 0x00, 0x40, 0x00, 0x00, 0x00,
  0x41, 0x00, 0x00, 0x00, 0x00, 0x00, 0x00, 0x09, 0x48, 0x00, 0x00, 0x00,
  0x02, 0x00, 0x00, 0x00, 0xff, 0xff, 0xff, 0xff, 0x0a, 0x00, 0x00, 0x00,
  0x54, 0xe2, 0xff, 0xff, 0x08, 0x00, 0x00, 0x00, 0x14, 0x00, 0x00, 0x00,
  0x01, 0x00, 0x00, 0x00, 0xfa, 0xff, 0xff, 0xff, 0xff, 0xff, 0xff, 0xff,
  0x00, 0x00, 0x00, 0x00, 0x01, 0x00, 0x00, 0x00, 0x4b, 0x67, 0xe8, 0x3b,
  0x0d, 0x00, 0x00, 0x00, 0x74, 0x66, 0x6c, 0x2e, 0x71, 0x75, 0x61, 0x6e,
  0x74, 0x69, 0x7a, 0x65, 0x32, 0x00, 0x00, 0x00, 0x02, 0x00, 0x00, 0x00,
  0x01, 0x00, 0x00, 0x00, 0x0a, 0x00, 0x00, 0x00, 0x4e, 0xe3, 0xff, 0xff,
  0x00, 0x00, 0x00, 0x01, 0x14, 0x00, 0x00, 0x00, 0x34, 0x00, 0x00, 0x00,
  0x40, 0x00, 0x00, 0x00, 0x00, 0x00, 0x00, 0x09, 0x3c, 0x00, 0x00, 0x00,
  0xb4, 0xe2, 0xff, 0xff, 0x08, 0x00, 0x00, 0x00, 0x14, 0x00, 0x00, 0x00,
  0x01, 0x00, 0x00, 0x00, 0x00, 0x00, 0x00, 0x00, 0x00, 0x00, 0x00, 0x00,
  0x00, 0x00, 0x00, 0x00, 0x01, 0x00, 0x00, 0x00, 0xe6, 0xb2, 0x98, 0x3b,
  0x0e, 0x00, 0x00, 0x00, 0x77, 0x68, 0x69, 0x6c, 0x65, 0x2f, 0x4d, 0x61,
  0x74, 0x4d, 0x75, 0x6c, 0x5f, 0x31, 0x00, 0x00, 0x02, 0x00, 0x00, 0x00,
  0x28, 0x00, 0x00, 0x00, 0x0a, 0x00, 0x00, 0x00, 0xae, 0xe3, 0xff, 0xff,
  0x00, 0x00, 0x00, 0x01, 0x14, 0x00, 0x00, 0x00, 0x34, 0x00, 0x00, 0x00,
  0x3f, 0x00, 0x00, 0x00, 0x00, 0x00, 0x00, 0x09, 0x3c, 0x00, 0x00, 0x00,
  0x14, 0xe3, 0xff, 0xff, 0x08, 0x00, 0x00, 0x00, 0x14, 0x00, 0x00, 0x00,
  0x01, 0x00, 0x00, 0x00, 0x00, 0x00, 0x00, 0x00, 0x00, 0x00, 0x00, 0x00,
  0x00, 0x00, 0x00, 0x00, 0x01, 0x00, 0x00, 0x00, 0x45, 0xc0, 0x62, 0x3b,
  0x0c, 0x00, 0x00, 0x00, 0x77, 0x68, 0x69, 0x6c, 0x65, 0x2f, 0x4d, 0x61,
  0x74, 0x4d, 0x75, 0x6c, 0x00, 0x00, 0x00, 0x00, 0x02, 0x00, 0x00, 0x00,
  0x28, 0x00, 0x00, 0x00, 0x04, 0x00, 0x00, 0x00, 0x0e, 0xe4, 0xff, 0xff,
  0x00, 0x00, 0x00, 0x01, 0x14, 0x00, 0x00, 0x00, 0x34, 0x00, 0x00, 0x00,
  0x3e, 0x00, 0x00, 0x00, 0x00, 0x00, 0x00, 0x09, 0x58, 0x00, 0x00, 0x00,
  0x74, 0xe3, 0xff, 0xff, 0x08, 0x00, 0x00, 0x00, 0x14, 0x00, 0x00, 0x00,
  0x01, 0x00, 0x00, 0x00, 0xad, 0xff, 0xff, 0xff, 0xff, 0xff, 0xff, 0xff,
  0x00, 0x00, 0x00, 0x00, 0x01, 0x00, 0x00, 0x00, 0x65, 0x66, 0xa7, 0x3b,
  0x2a, 0x00, 0x00, 0x00, 0x73, 0x65, 0x71, 0x75, 0x65, 0x6e, 0x74, 0x69,
  0x61, 0x6c, 0x5f, 0x31, 0x2f, 0x6c, 0x73, 0x74, 0x6d, 0x5f, 0x31, 0x2f,
  0x52, 0x65, 0x61, 0x64, 0x5f, 0x32, 0x2f, 0x52, 0x65, 0x61, 0x64, 0x56,
  0x61, 0x72, 0x69, 0x61, 0x62, 0x6c, 0x65, 0x4f, 0x70, 0x31, 0x00, 0x00,
  0x01, 0x00, 0x00, 0x00, 0x28, 0x00, 0x00, 0x00, 0x86, 0xe4, 0xff, 0xff,
  0x00, 0x00, 0x00, 0x01, 0x14, 0x00, 0x00, 0x00, 0x14, 0x00, 0x00, 0x00,
  0x3d, 0x00, 0x00, 0x00, 0x00, 0x00, 0x00, 0x02, 0x14, 0x00, 0x00, 0x00,
  0x70, 0xe4, 0xff, 0xff, 0x05, 0x00, 0x00, 0x00, 0x74, 0x69, 0x6d, 0x65,
  0x31, 0x00, 0x00, 0x00, 0x00, 0x00, 0x00, 0x00, 0xb6, 0xe4, 0xff, 0xff,
  0x00, 0x00, 0x00, 0x01, 0x14, 0x00, 0x00, 0x00, 0x14, 0x00, 0x00, 0x00,
  0x3c, 0x00, 0x00, 0x00, 0x00, 0x00, 0x00, 0x02, 0x2c, 0x00, 0x00, 0x00,
  0xa0, 0xe4, 0xff, 0xff, 0x1d, 0x00, 0x00, 0x00, 0x54, 0x65, 0x6e, 0x73,
  0x6f, 0x72, 0x41, 0x72, 0x72, 0x61, 0x79, 0x56, 0x32, 0x5f, 0x31, 0x2f,
  0x6e, 0x75, 0x6d, 0x5f, 0x65, 0x6c, 0x65, 0x6d, 0x65, 0x6e, 0x74, 0x73,
  0x31, 0x00, 0x00, 0x00, 0x00, 0x00, 0x00, 0x00, 0xe2, 0xee, 0xff, 0xff,
  0x00, 0x00, 0x00, 0x01, 0x14, 0x00, 0x00, 0x00, 0x20, 0x00, 0x00, 0x00,
  0x20, 0x00, 0x00, 0x00, 0x3b, 0x00, 0x00, 0x00, 0x24, 0x00, 0x00, 0x00,
  0x03, 0x00, 0x00, 0x00, 0x90, 0x01, 0x00, 0x00, 0xff, 0xff, 0xff, 0xff,
  0x04, 0x00, 0x00, 0x00, 0xf8, 0xe4, 0xff, 0xff, 0x04, 0x00, 0x00, 0x00,
  0x61, 0x72, 0x67, 0x35, 0x00, 0x00, 0x00, 0x00, 0x03, 0x00, 0x00, 0x00,
  0x90, 0x01, 0x00, 0x00, 0x01, 0x00, 0x00, 0x00, 0x04, 0x00, 0x00, 0x00,
  0x2e, 0xef, 0xff, 0xff, 0x00, 0x00, 0x00, 0x01, 0x14, 0x00, 0x00, 0x00,
  0x1c, 0x00, 0x00, 0x00, 0x1c, 0x00, 0x00, 0x00, 0x3a, 0x00, 0x00, 0x00,
  0x20, 0x00, 0x00, 0x00, 0x02, 0x00, 0x00, 0x00, 0xff, 0xff, 0xff, 0xff,
  0x0a, 0x00, 0x00, 0x00, 0x40, 0xe5, 0xff, 0xff, 0x04, 0x00, 0x00, 0x00,
  0x61, 0x72, 0x67, 0x34, 0x00, 0x00, 0x00, 0x00, 0x02, 0x00, 0x00, 0x00,
  0x01, 0x00, 0x00, 0x00, 0x0a, 0x00, 0x00, 0x00, 0x72, 0xef, 0xff, 0xff,
  0x00, 0x00, 0x00, 0x01, 0x14, 0x00, 0x00, 0x00, 0x1c, 0x00, 0x00, 0x00,
  0x1c, 0x00, 0x00, 0x00, 0x39, 0x00, 0x00, 0x00, 0x20, 0x00, 0x00, 0x00,
  0x02, 0x00, 0x00, 0x00, 0xff, 0xff, 0xff, 0xff, 0x0a, 0x00, 0x00, 0x00,
  0x84, 0xe5, 0xff, 0xff, 0x04, 0x00, 0x00, 0x00, 0x61, 0x72, 0x67, 0x33,
  0x00, 0x00, 0x00, 0x00, 0x02, 0x00, 0x00, 0x00, 0x01, 0x00, 0x00, 0x00,
  0x0a, 0x00, 0x00, 0x00, 0xd2, 0xe5, 0xff, 0xff, 0x00, 0x00, 0x00, 0x01,
  0x14, 0x00, 0x00, 0x00, 0x14, 0x00, 0x00, 0x00, 0x38, 0x00, 0x00, 0x00,
  0x00, 0x00, 0x00, 0x0e, 0x14, 0x00, 0x00, 0x00, 0xbc, 0xe5, 0xff, 0xff,
  0x04, 0x00, 0x00, 0x00, 0x61, 0x72, 0x67, 0x32, 0x00, 0x00, 0x00, 0x00,
  0x00, 0x00, 0x00, 0x00, 0x02, 0xe6, 0xff, 0xff, 0x00, 0x00, 0x00, 0x01,
  0x14, 0x00, 0x00, 0x00, 0x14, 0x00, 0x00, 0x00, 0x37, 0x00, 0x00, 0x00,
  0x00, 0x00, 0x00, 0x02, 0x14, 0x00, 0x00, 0x00, 0xec, 0xe5, 0xff, 0xff,
  0x04, 0x00, 0x00, 0x00, 0x61, 0x72, 0x67, 0x31, 0x00, 0x00, 0x00, 0x00,
  0x00, 0x00, 0x00, 0x00, 0x32, 0xe6, 0xff, 0xff, 0x00, 0x00, 0x00, 0x01,
  0x14, 0x00, 0x00, 0x00, 0x14, 0x00, 0x00, 0x00, 0x36, 0x00, 0x00, 0x00,
  0x00, 0x00, 0x00, 0x02, 0x14, 0x00, 0x00, 0x00, 0x1c, 0xe6, 0xff, 0xff,
  0x04, 0x00, 0x00, 0x00, 0x61, 0x72, 0x67, 0x30, 0x00, 0x00, 0x00, 0x00,
  0x00, 0x00, 0x00, 0x00, 0x92, 0xfd, 0xff, 0xff, 0x14, 0x00, 0x00, 0x00,
  0x20, 0x00, 0x00, 0x00, 0x48, 0x00, 0x00, 0x00, 0x4c, 0x00, 0x00, 0x00,
  0x64, 0x00, 0x00, 0x00, 0x0a, 0x00, 0x00, 0x00, 0x77, 0x68, 0x69, 0x6c,
  0x65, 0x5f, 0x63, 0x6f, 0x6e, 0x64, 0x00, 0x00, 0x01, 0x00, 0x00, 0x00,
  0x04, 0x00, 0x00, 0x00, 0xf2, 0xf9, 0xff, 0xff, 0x0c, 0x00, 0x00, 0x00,
  0x10, 0x00, 0x00, 0x00, 0x0d, 0x00, 0x00, 0x00, 0x01, 0x00, 0x00, 0x00,
  0x07, 0x00, 0x00, 0x00, 0x02, 0x00, 0x00, 0x00, 0x01, 0x00, 0x00, 0x00,
  0x06, 0x00, 0x00, 0x00, 0x01, 0x00, 0x00, 0x00, 0x07, 0x00, 0x00, 0x00,
  0x06, 0x00, 0x00, 0x00, 0x00, 0x00, 0x00, 0x00, 0x01, 0x00, 0x00, 0x00,
  0x02, 0x00, 0x00, 0x00, 0x03, 0x00, 0x00, 0x00, 0x04, 0x00, 0x00, 0x00,
  0x05, 0x00, 0x00, 0x00, 0x08, 0x00, 0x00, 0x00, 0xc0, 0x01, 0x00, 0x00,
  0x8c, 0x01, 0x00, 0x00, 0x58, 0x01, 0x00, 0x00, 0x10, 0x01, 0x00, 0x00,
  0xc8, 0x00, 0x00, 0x00, 0x78, 0x00, 0x00, 0x00, 0x3c, 0x00, 0x00, 0x00,
  0x04, 0x00, 0x00, 0x00, 0xfe, 0xe6, 0xff, 0xff, 0x00, 0x00, 0x00, 0x01,
  0x14, 0x00, 0x00, 0x00, 0x14, 0x00, 0x00, 0x00, 0x35, 0x00, 0x00, 0x00,
  0x00, 0x00, 0x00, 0x06, 0x18, 0x00, 0x00, 0x00, 0xe8, 0xe6, 0xff, 0xff,
  0x0a, 0x00, 0x00, 0x00, 0x77, 0x68, 0x69, 0x6c, 0x65, 0x2f, 0x4c, 0x65,
  0x73, 0x73, 0x00, 0x00, 0x00, 0x00, 0x00, 0x00, 0x32, 0xe7, 0xff, 0xff,
  0x00, 0x00, 0x00, 0x01, 0x14, 0x00, 0x00, 0x00, 0x14, 0x00, 0x00, 0x00,
  0x34, 0x00, 0x00, 0x00, 0x00, 0x00, 0x00, 0x02, 0x1c, 0x00, 0x00, 0x00,
  0x1c, 0xe7, 0xff, 0xff, 0x0e, 0x00, 0x00, 0x00, 0x73, 0x74, 0x72, 0x69,
  0x64, 0x65, 0x64, 0x5f, 0x73, 0x6c, 0x69, 0x63, 0x65, 0x31, 0x00, 0x00,
  0x00, 0x00, 0x00, 0x00, 0x4e, 0xf1, 0xff, 0xff, 0x00, 0x00, 0x00, 0x01,
  0x14, 0x00, 0x00, 0x00, 0x20, 0x00, 0x00, 0x00, 0x20, 0x00, 0x00, 0x00,
  0x33, 0x00, 0x00, 0x00, 0x24, 0x00, 0x00, 0x00, 0x03, 0x00, 0x00, 0x00,
  0x90, 0x01, 0x00, 0x00, 0xff, 0xff, 0xff, 0xff, 0x04, 0x00, 0x00, 0x00,
  0x64, 0xe7, 0xff, 0xff, 0x04, 0x00, 0x00, 0x00, 0x61, 0x72, 0x67, 0x35,
  0x00, 0x00, 0x00, 0x00, 0x03, 0x00, 0x00, 0x00, 0x90, 0x01, 0x00, 0x00,
  0x01, 0x00, 0x00, 0x00, 0x04, 0x00, 0x00, 0x00, 0x9a, 0xf1, 0xff, 0xff,
  0x00, 0x00, 0x00, 0x01, 0x14, 0x00, 0x00, 0x00, 0x1c, 0x00, 0x00, 0x00,
  0x1c, 0x00, 0x00, 0x00, 0x32, 0x00, 0x00, 0x00, 0x20, 0x00, 0x00, 0x00,
  0x02, 0x00, 0x00, 0x00, 0xff, 0xff, 0xff, 0xff, 0x0a, 0x00, 0x00, 0x00,
  0xac, 0xe7, 0xff, 0xff, 0x04, 0x00, 0x00, 0x00, 0x61, 0x72, 0x67, 0x34,
  0x00, 0x00, 0x00, 0x00, 0x02, 0x00, 0x00, 0x00, 0x01, 0x00, 0x00, 0x00,
  0x0a, 0x00, 0x00, 0x00, 0xde, 0xf1, 0xff, 0xff, 0x00, 0x00, 0x00, 0x01,
  0x14, 0x00, 0x00, 0x00, 0x1c, 0x00, 0x00, 0x00, 0x1c, 0x00, 0x00, 0x00,
  0x31, 0x00, 0x00, 0x00, 0x20, 0x00, 0x00, 0x00, 0x02, 0x00, 0x00, 0x00,
  0xff, 0xff, 0xff, 0xff, 0x0a, 0x00, 0x00, 0x00, 0xf0, 0xe7, 0xff, 0xff,
  0x04, 0x00, 0x00, 0x00, 0x61, 0x72, 0x67, 0x33, 0x00, 0x00, 0x00, 0x00,
  0x02, 0x00, 0x00, 0x00, 0x01, 0x00, 0x00, 0x00, 0x0a, 0x00, 0x00, 0x00,
  0x3e, 0xe8, 0xff, 0xff, 0x00, 0x00, 0x00, 0x01, 0x14, 0x00, 0x00, 0x00,
  0x14, 0x00, 0x00, 0x00, 0x30, 0x00, 0x00, 0x00, 0x00, 0x00, 0x00, 0x0e,
  0x14, 0x00, 0x00, 0x00, 0x28, 0xe8, 0xff, 0xff, 0x04, 0x00, 0x00, 0x00,
  0x61, 0x72, 0x67, 0x32, 0x00, 0x00, 0x00, 0x00, 0x00, 0x00, 0x00, 0x00,
  0x6e, 0xe8, 0xff, 0xff, 0x00, 0x00, 0x00, 0x01, 0x14, 0x00, 0x00, 0x00,
  0x14, 0x00, 0x00, 0x00, 0x2f, 0x00, 0x00, 0x00, 0x00, 0x00, 0x00, 0x02,
  0x14, 0x00, 0x00, 0x00, 0x58, 0xe8, 0xff, 0xff, 0x04, 0x00, 0x00, 0x00,
  0x61, 0x72, 0x67, 0x31, 0x00, 0x00, 0x00, 0x00, 0x00, 0x00, 0x00, 0x00,
  0x9e, 0xe8, 0xff, 0xff, 0x00, 0x00, 0x00, 0x01, 0x14, 0x00, 0x00, 0x00,
  0x14, 0x00, 0x00, 0x00, 0x2e, 0x00, 0x00, 0x00, 0x00, 0x00, 0x00, 0x02,
  0x14, 0x00, 0x00, 0x00, 0x88, 0xe8, 0xff, 0xff, 0x04, 0x00, 0x00, 0x00,
  0x61, 0x72, 0x67, 0x30, 0x00, 0x00, 0x00, 0x00, 0x00, 0x00, 0x00, 0x00,
  0x00, 0x00, 0x0e, 0x00, 0x18, 0x00, 0x14, 0x00, 0x10, 0x00, 0x0c, 0x00,
  0x08, 0x00, 0x04, 0x00, 0x0e, 0x00, 0x00, 0x00, 0x14, 0x00, 0x00, 0x00,
  0x1c, 0x00, 0x00, 0x00, 0x3c, 0x05, 0x00, 0x00, 0x40, 0x05, 0x00, 0x00,
  0x44, 0x05, 0x00, 0x00, 0x04, 0x00, 0x00, 0x00, 0x6d, 0x61, 0x69, 0x6e,
  0x00, 0x00, 0x00, 0x00, 0x14, 0x00, 0x00, 0x00, 0x04, 0x05, 0x00, 0x00,
  0xc4, 0x04, 0x00, 0x00, 0x80, 0x04, 0x00, 0x00, 0x44, 0x04, 0x00, 0x00,
  0xf4, 0x03, 0x00, 0x00, 0xb4, 0x03, 0x00, 0x00, 0x8c, 0x03, 0x00, 0x00,
  0x5c, 0x03, 0x00, 0x00, 0xcc, 0x02, 0x00, 0x00, 0x94, 0x02, 0x00, 0x00,
  0x70, 0x02, 0x00, 0x00, 0x08, 0x02, 0x00, 0x00, 0x7c, 0x01, 0x00, 0x00,
  0x5c, 0x01, 0x00, 0x00, 0x04, 0x01, 0x00, 0x00, 0xcc, 0x00, 0x00, 0x00,
  0x94, 0x00, 0x00, 0x00, 0x5c, 0x00, 0x00, 0x00, 0x24, 0x00, 0x00, 0x00,
  0x04, 0x00, 0x00, 0x00, 0x56, 0xfb, 0xff, 0xff, 0x08, 0x00, 0x00, 0x00,
  0x0c, 0x00, 0x00, 0x00, 0x01, 0x00, 0x00, 0x00, 0x2c, 0x00, 0x00, 0x00,
  0x01, 0x00, 0x00, 0x00, 0x2b, 0x00, 0x00, 0x00, 0xb2, 0xfb, 0xff, 0xff,
  0x14, 0x00, 0x00, 0x00, 0x00, 0x00, 0x00, 0x08, 0x10, 0x00, 0x00, 0x00,
  0x14, 0x00, 0x00, 0x00, 0x0c, 0x00, 0x00, 0x00, 0x58, 0xe9, 0xff, 0xff,
  0x01, 0x00, 0x00, 0x00, 0x2b, 0x00, 0x00, 0x00, 0x03, 0x00, 0x00, 0x00,
  0x2a, 0x00, 0x00, 0x00, 0x0c, 0x00, 0x00, 0x00, 0x0b, 0x00, 0x00, 0x00,
  0xe6, 0xfb, 0xff, 0xff, 0x14, 0x00, 0x00, 0x00, 0x00, 0x00, 0x00, 0x08,
  0x10, 0x00, 0x00, 0x00, 0x14, 0x00, 0x00, 0x00, 0x0c, 0x00, 0x00, 0x00,
  0x8c, 0xe9, 0xff, 0xff, 0x01, 0x00, 0x00, 0x00, 0x2a, 0x00, 0x00, 0x00,
  0x03, 0x00, 0x00, 0x00, 0x29, 0x00, 0x00, 0x00, 0x0d, 0x00, 0x00, 0x00,
  0xff, 0xff, 0xff, 0xff, 0x1a, 0xfc, 0xff, 0xff, 0x14, 0x00, 0x00, 0x00,
  0x00, 0x00, 0x00, 0x08, 0x10, 0x00, 0x00, 0x00, 0x14, 0x00, 0x00, 0x00,
  0x0c, 0x00, 0x00, 0x00, 0xc0, 0xe9, 0xff, 0xff, 0x01, 0x00, 0x00, 0x00,
  0x29, 0x00, 0x00, 0x00, 0x03, 0x00, 0x00, 0x00, 0x28, 0x00, 0x00, 0x00,
  0x0f, 0x00, 0x00, 0x00, 0x0e, 0x00, 0x00, 0x00, 0x4e, 0xfc, 0xff, 0xff,
  0x14, 0x00, 0x00, 0x00, 0x00, 0x00, 0x00, 0x08, 0x10, 0x00, 0x00, 0x00,
  0x14, 0x00, 0x00, 0x00, 0x0c, 0x00, 0x00, 0x00, 0xf4, 0xe9, 0xff, 0xff,
  0x01, 0x00, 0x00, 0x00, 0x28, 0x00, 0x00, 0x00, 0x03, 0x00, 0x00, 0x00,
  0x27, 0x00, 0x00, 0x00, 0x10, 0x00, 0x00, 0x00, 0xff, 0xff, 0xff, 0xff,
  0x82, 0xfc, 0xff, 0xff, 0x24, 0x00, 0x00, 0x00, 0x00, 0x00, 0x00, 0x20,
  0x2c, 0x00, 0x00, 0x00, 0x30, 0x00, 0x00, 0x00, 0x04, 0x00, 0x00, 0x00,
  0x00, 0x00, 0x0e, 0x00, 0x10, 0x00, 0x0c, 0x00, 0x08, 0x00, 0x00, 0x00,
  0x00, 0x00, 0x04, 0x00, 0x0e, 0x00, 0x00, 0x00, 0x01, 0x00, 0x00, 0x00,
  0x06, 0x00, 0x00, 0x00, 0x06, 0x00, 0x00, 0x00, 0x01, 0x00, 0x00, 0x00,
  0x27, 0x00, 0x00, 0x00, 0x04, 0x00, 0x00, 0x00, 0x26, 0x00, 0x00, 0x00,
  0x08, 0x00, 0x00, 0x00, 0x09, 0x00, 0x00, 0x00, 0x0a, 0x00, 0x00, 0x00,
  0x96, 0xfc, 0xff, 0xff, 0x08, 0x00, 0x00, 0x00, 0x0c, 0x00, 0x00, 0x00,
  0x01, 0x00, 0x00, 0x00, 0x26, 0x00, 0x00, 0x00, 0x01, 0x00, 0x00, 0x00,
  0x25, 0x00, 0x00, 0x00, 0xd0, 0xfe, 0xff, 0xff, 0x10, 0x00, 0x00, 0x00,
  0x6c, 0x00, 0x00, 0x00, 0x70, 0x00, 0x00, 0x00, 0x0b, 0x00, 0x00, 0x00,
  0x5b, 0x00, 0x00, 0x00, 0x0f, 0x54, 0x65, 0x6e, 0x73, 0x6f, 0x72, 0x4c,
  0x69, 0x73, 0x74, 0x53, 0x74, 0x61, 0x63, 0x6b, 0x00, 0x40, 0x12, 0x0f,
  0x54, 0x65, 0x6e, 0x73, 0x6f, 0x72, 0x4c, 0x69, 0x73, 0x74, 0x53, 0x74,
  0x61, 0x63, 0x6b, 0x1a, 0x00, 0x1a, 0x00, 0x2a, 0x12, 0x0a, 0x0c, 0x6e,
  0x75, 0x6d, 0x5f, 0x65, 0x6c, 0x65, 0x6d, 0x65, 0x6e, 0x74, 0x73, 0x12,
  0x02, 0x18, 0x01, 0x2a, 0x13, 0x0a, 0x0d, 0x65, 0x6c, 0x65, 0x6d, 0x65,
  0x6e, 0x74, 0x5f, 0x64, 0x74, 0x79, 0x70, 0x65, 0x12, 0x02, 0x30, 0x01,
  0x32, 0x00, 0x00, 0x02, 0x53, 0x43, 0x14, 0x14, 0x04, 0x28, 0x01, 0x00,
  0x01, 0x00, 0x00, 0x00, 0x25, 0x00, 0x00, 0x00, 0x02, 0x00, 0x00, 0x00,
  0x21, 0x00, 0x00, 0x00, 0x04, 0x00, 0x00, 0x00, 0x7a, 0xfd, 0xff, 0xff,
  0x1c, 0x00, 0x00, 0x00, 0x00, 0x00, 0x00, 0x5d, 0x20, 0x00, 0x00, 0x00,
  0x38, 0x00, 0x00, 0x00, 0x0a, 0x00, 0x00, 0x00, 0x08, 0x00, 0x0c, 0x00,
  0x08, 0x00, 0x04, 0x00, 0x08, 0x00, 0x00, 0x00, 0x02, 0x00, 0x00, 0x00,
  0x01, 0x00, 0x00, 0x00, 0x06, 0x00, 0x00, 0x00, 0x1f, 0x00, 0x00, 0x00,
  0x20, 0x00, 0x00, 0x00, 0x21, 0x00, 0x00, 0x00, 0x22, 0x00, 0x00, 0x00,
  0x23, 0x00, 0x00, 0x00, 0x24, 0x00, 0x00, 0x00, 0x06, 0x00, 0x00, 0x00,
  0x07, 0x00, 0x00, 0x00, 0x07, 0x00, 0x00, 0x00, 0x1c, 0x00, 0x00, 0x00,
  0x1b, 0x00, 0x00, 0x00, 0x1b, 0x00, 0x00, 0x00, 0x1e, 0x00, 0x00, 0x00,
  0xfe, 0xfe, 0xff, 0xff, 0x0c, 0x00, 0x00, 0x00, 0x10, 0x00, 0x00, 0x00,
  0x07, 0x00, 0x00, 0x00, 0x01, 0x00, 0x00, 0x00, 0x1e, 0x00, 0x00, 0x00,
  0x01, 0x00, 0x00, 0x00, 0x1d, 0x00, 0x00, 0x00, 0x1e, 0xff, 0xff, 0xff,
  0x0c, 0x00, 0x00, 0x00, 0x10, 0x00, 0x00, 0x00, 0x09, 0x00, 0x00, 0x00,
  0x01, 0x00, 0x00, 0x00, 0x1d, 0x00, 0x00, 0x00, 0x02, 0x00, 0x00, 0x00,
  0x16, 0x00, 0x00, 0x00, 0x06, 0x00, 0x00, 0x00, 0x10, 0x00, 0x14, 0x00,
  0x10, 0x00, 0x0c, 0x00, 0x08, 0x00, 0x00, 0x00, 0x00, 0x00, 0x04, 0x00,
  0x10, 0x00, 0x00, 0x00, 0x10, 0x00, 0x00, 0x00, 0x70, 0x00, 0x00, 0x00,
  0x74, 0x00, 0x00, 0x00, 0x08, 0x00, 0x00, 0x00, 0x5d, 0x00, 0x00, 0x00,
  0x11, 0x54, 0x65, 0x6e, 0x73, 0x6f, 0x72, 0x4c, 0x69, 0x73, 0x74, 0x52,
  0x65, 0x73, 0x65, 0x72, 0x76, 0x65, 0x00, 0x40, 0x12, 0x11, 0x54, 0x65,
  0x6e, 0x73, 0x6f, 0x72, 0x4c, 0x69, 0x73, 0x74, 0x52, 0x65, 0x73, 0x65,
  0x72, 0x76, 0x65, 0x1a, 0x00, 0x1a, 0x00, 0x2a, 0x10, 0x0a, 0x0a, 0x73,
  0x68, 0x61, 0x70, 0x65, 0x5f, 0x74, 0x79, 0x70, 0x65, 0x12, 0x02, 0x30,
  0x03, 0x2a, 0x13, 0x0a, 0x0d, 0x65, 0x6c, 0x65, 0x6d, 0x65, 0x6e, 0x74,
  0x5f, 0x64, 0x74, 0x79, 0x70, 0x65, 0x12, 0x02, 0x30, 0x01, 0x32, 0x00,
  0x00, 0x02, 0x55, 0x43, 0x14, 0x14, 0x04, 0x28, 0x01, 0x00, 0x00, 0x00,
  0x01, 0x00, 0x00, 0x00, 0x1c, 0x00, 0x00, 0x00, 0x02, 0x00, 0x00, 0x00,
  0x04, 0x00, 0x00, 0x00, 0x05, 0x00, 0x00, 0x00, 0xde, 0xff, 0xff, 0xff,
  0x0c, 0x00, 0x00, 0x00, 0x10, 0x00, 0x00, 0x00, 0x07, 0x00, 0x00, 0x00,
  0x01, 0x00, 0x00, 0x00, 0x1b, 0x00, 0x00, 0x00, 0x01, 0x00, 0x00, 0x00,
  0x1a, 0x00, 0x00, 0x00, 0x00, 0x00, 0x0a, 0x00, 0x10, 0x00, 0x0c, 0x00,
  0x08, 0x00, 0x04, 0x00, 0x0a, 0x00, 0x00, 0x00, 0x0c, 0x00, 0x00, 0x00,
  0x10, 0x00, 0x00, 0x00, 0x06, 0x00, 0x00, 0x00, 0x01, 0x00, 0x00, 0x00,
  0x1a, 0x00, 0x00, 0x00, 0x02, 0x00, 0x00, 0x00, 0x19, 0x00, 0x00, 0x00,
  0x11, 0x00, 0x00, 0x00, 0x0e, 0xff, 0xff, 0xff, 0x1c, 0x00, 0x00, 0x00,
  0x00, 0x00, 0x00, 0x3b, 0x1c, 0x00, 0x00, 0x00, 0x20, 0x00, 0x00, 0x00,
  0x05, 0x00, 0x00, 0x00, 0x00, 0x00, 0x06, 0x00, 0x08, 0x00, 0x04, 0x00,
  0x06, 0x00, 0x00, 0x00, 0x02, 0x00, 0x00, 0x00, 0x01, 0x00, 0x00, 0x00,
  0x19, 0x00, 0x00, 0x00, 0x02, 0x00, 0x00, 0x00, 0x18, 0x00, 0x00, 0x00,
  0x03, 0x00, 0x00, 0x00, 0x4a, 0xff, 0xff, 0xff, 0x24, 0x00, 0x00, 0x00,
  0x00, 0x00, 0x00, 0x20, 0x24, 0x00, 0x00, 0x00, 0x28, 0x00, 0x00, 0x00,
  0x04, 0x00, 0x00, 0x00, 0x00, 0x00, 0x0e, 0x00, 0x08, 0x00, 0x00, 0x00,
  0x00, 0x00, 0x00, 0x00, 0x00, 0x00, 0x04, 0x00, 0x0e, 0x00, 0x00, 0x00,
  0x01, 0x00, 0x00, 0x00, 0x01, 0x00, 0x00, 0x00, 0x18, 0x00, 0x00, 0x00,
  0x04, 0x00, 0x00, 0x00, 0x17, 0x00, 0x00, 0x00, 0x01, 0x00, 0x00, 0x00,
  0x02, 0x00, 0x00, 0x00, 0x02, 0x00, 0x00, 0x00, 0x96, 0xff, 0xff, 0xff,
  0x1c, 0x00, 0x00, 0x00, 0x00, 0x00, 0x00, 0x37, 0x1c, 0x00, 0x00, 0x00,
  0x20, 0x00, 0x00, 0x00, 0x03, 0x00, 0x00, 0x00, 0x00, 0x00, 0x06, 0x00,
  0x08, 0x00, 0x07, 0x00, 0x06, 0x00, 0x00, 0x00, 0x00, 0x00, 0x00, 0x02,
  0x01, 0x00, 0x00, 0x00, 0x17, 0x00, 0x00, 0x00, 0x01, 0x00, 0x00, 0x00,
  0x16, 0x00, 0x00, 0x00, 0xce, 0xff, 0xff, 0xff, 0x14, 0x00, 0x00, 0x00,
  0x00, 0x00, 0x00, 0x15, 0x10, 0x00, 0x00, 0x00, 0x14, 0x00, 0x00, 0x00,
  0x02, 0x00, 0x00, 0x00, 0x74, 0xed, 0xff, 0xff, 0x01, 0x00, 0x00, 0x00,
  0x16, 0x00, 0x00, 0x00, 0x02, 0x00, 0x00, 0x00, 0x15, 0x00, 0x00, 0x00,
  0x12, 0x00, 0x00, 0x00, 0x00, 0x00, 0x0e, 0x00, 0x18, 0x00, 0x14, 0x00,
  0x10, 0x00, 0x0c, 0x00, 0x0b, 0x00, 0x04, 0x00, 0x0e, 0x00, 0x00, 0x00,
  0x14, 0x00, 0x00, 0x00, 0x00, 0x00, 0x00, 0x1c, 0x10, 0x00, 0x00, 0x00,
  0x14, 0x00, 0x00, 0x00, 0x01, 0x00, 0x00, 0x00, 0xb4, 0xed, 0xff, 0xff,
  0x01, 0x00, 0x00, 0x00, 0x15, 0x00, 0x00, 0x00, 0x02, 0x00, 0x00, 0x00,
  0x14, 0x00, 0x00, 0x00, 0x13, 0x00, 0x00, 0x00, 0x00, 0x00, 0x0a, 0x00,
  0x0c, 0x00, 0x00, 0x00, 0x08, 0x00, 0x04, 0x00, 0x0a, 0x00, 0x00, 0x00,
  0x08, 0x00, 0x00, 0x00, 0x0c, 0x00, 0x00, 0x00, 0x01, 0x00, 0x00, 0x00,
  0x14, 0x00, 0x00, 0x00, 0x01, 0x00, 0x00, 0x00, 0x00, 0x00, 0x00, 0x00,
  0x01, 0x00, 0x00, 0x00, 0x2c, 0x00, 0x00, 0x00, 0x01, 0x00, 0x00, 0x00,
  0x00, 0x00, 0x00, 0x00, 0x2d, 0x00, 0x00, 0x00, 0x4c, 0x12, 0x00, 0x00,
  0xd8, 0x11, 0x00, 0x00, 0x64, 0x11, 0x00, 0x00, 0x14, 0x11, 0x00, 0x00,
  0xb0, 0x10, 0x00, 0x00, 0x64, 0x10, 0x00, 0x00, 0x24, 0x10, 0x00, 0x00,
  0xf0, 0x0f, 0x00, 0x00, 0xb0, 0x0f, 0x00, 0x00, 0x6c, 0x0f, 0x00, 0x00,
  0x28, 0x0f, 0x00, 0x00, 0xa0, 0x0e, 0x00, 0x00, 0x34, 0x0e, 0x00, 0x00,
  0xc8, 0x0d, 0x00, 0x00, 0x3c, 0x0d, 0x00, 0x00, 0xd0, 0x0c, 0x00, 0x00,
  0x5c, 0x0c, 0x00, 0x00, 0xf0, 0x0b, 0x00, 0x00, 0x54, 0x0b, 0x00, 0x00,
  0xf8, 0x0a, 0x00, 0x00, 0x80, 0x0a, 0x00, 0x00, 0xf4, 0x09, 0x00, 0x00,
  0x48, 0x09, 0x00, 0x00, 0xfc, 0x08, 0x00, 0x00, 0xac, 0x08, 0x00, 0x00,
  0x58, 0x08, 0x00, 0x00, 0xdc, 0x07, 0x00, 0x00, 0x8c, 0x07, 0x00, 0x00,
  0x38, 0x07, 0x00, 0x00, 0xc4, 0x06, 0x00, 0x00, 0x70, 0x06, 0x00, 0x00,
  0x18, 0x06, 0x00, 0x00, 0xc0, 0x05, 0x00, 0x00, 0x68, 0x05, 0x00, 0x00,
  0xfc, 0x04, 0x00, 0x00, 0x90, 0x04, 0x00, 0x00, 0x1c, 0x04, 0x00, 0x00,
  0xb0, 0x03, 0x00, 0x00, 0x38, 0x03, 0x00, 0x00, 0xc0, 0x02, 0x00, 0x00,
  0x3c, 0x02, 0x00, 0x00, 0x80, 0x01, 0x00, 0x00, 0xfc, 0x00, 0x00, 0x00,
  0x80, 0x00, 0x00, 0x00, 0x04, 0x00, 0x00, 0x00, 0x7e, 0xee, 0xff, 0xff,
  0x00, 0x00, 0x00, 0x01, 0x18, 0x00, 0x00, 0x00, 0x20, 0x00, 0x00, 0x00,
  0x3c, 0x00, 0x00, 0x00, 0x2d, 0x00, 0x00, 0x00, 0x00, 0x00, 0x00, 0x03,
  0x50, 0x00, 0x00, 0x00, 0x02, 0x00, 0x00, 0x00, 0xff, 0xff, 0xff, 0xff,
  0x01, 0x00, 0x00, 0x00, 0x64, 0xee, 0xff, 0xff, 0x08, 0x00, 0x00, 0x00,
  0x10, 0x00, 0x00, 0x00, 0x01, 0x00, 0x00, 0x00, 0x00, 0x00, 0x00, 0x00,
  0x00, 0x00, 0x00, 0x00, 0x01, 0x00, 0x00, 0x00, 0x0f, 0x92, 0x9d, 0x3b,
  0x19, 0x00, 0x00, 0x00, 0x53, 0x74, 0x61, 0x74, 0x65, 0x66, 0x75, 0x6c,
  0x50, 0x61, 0x72, 0x74, 0x69, 0x74, 0x69, 0x6f, 0x6e, 0x65, 0x64, 0x43,
  0x61, 0x6c, 0x6c, 0x3a, 0x30, 0x00, 0x00, 0x00, 0x02, 0x00, 0x00, 0x00,
  0x01, 0x00, 0x00, 0x00, 0x01, 0x00, 0x00, 0x00, 0xf6, 0xee, 0xff, 0xff,
  0x00, 0x00, 0x00, 0x01, 0x18, 0x00, 0x00, 0x00, 0x20, 0x00, 0x00, 0x00,
  0x3c, 0x00, 0x00, 0x00, 0x2c, 0x00, 0x00, 0x00, 0x00, 0x00, 0x00, 0x09,
  0x50, 0x00, 0x00, 0x00, 0x02, 0x00, 0x00, 0x00, 0xff, 0xff, 0xff, 0xff,
  0x01, 0x00, 0x00, 0x00, 0xdc, 0xee, 0xff, 0xff, 0x08, 0x00, 0x00, 0x00,
  0x10, 0x00, 0x00, 0x00, 0x01, 0x00, 0x00, 0x00, 0x80, 0xff, 0xff, 0xff,
  0xff, 0xff, 0xff, 0xff, 0x01, 0x00, 0x00, 0x00, 0x0f, 0x92, 0x9d, 0x3b,
  0x1a, 0x00, 0x00, 0x00, 0x53, 0x74, 0x61, 0x74, 0x65, 0x66, 0x75, 0x6c,
  0x50, 0x61, 0x72, 0x74, 0x69, 0x74, 0x69, 0x6f, 0x6e, 0x65, 0x64, 0x43,
  0x61, 0x6c, 0x6c, 0x3a, 0x30, 0x31, 0x00, 0x00, 0x02, 0x00, 0x00, 0x00,
  0x01, 0x00, 0x00, 0x00, 0x01, 0x00, 0x00, 0x00, 0x6e, 0xef, 0xff, 0xff,
  0x00, 0x00, 0x00, 0x01, 0x18, 0x00, 0x00, 0x00, 0x20, 0x00, 0x00, 0x00,
  0x40, 0x00, 0x00, 0x00, 0x2b, 0x00, 0x00, 0x00, 0x00, 0x00, 0x00, 0x09,
  0x58, 0x00, 0x00, 0x00, 0x02, 0x00, 0x00, 0x00, 0xff, 0xff, 0xff, 0xff,
  0x08, 0x00, 0x00, 0x00, 0x54, 0xef, 0xff, 0xff, 0x08, 0x00, 0x00, 0x00,
  0x14, 0x00, 0x00, 0x00, 0x01, 0x00, 0x00, 0x00, 0xfb, 0xff, 0xff, 0xff,
  0xff, 0xff, 0xff, 0xff, 0x00, 0x00, 0x00, 0x00, 0x01, 0x00, 0x00, 0x00,
  0x27, 0xc1, 0x8d, 0x3b, 0x1c, 0x00, 0x00, 0x00, 0x73, 0x65, 0x71, 0x75,
  0x65, 0x6e, 0x74, 0x69, 0x61, 0x6c, 0x5f, 0x31, 0x2f, 0x64, 0x65, 0x6e,
  0x73, 0x65, 0x5f, 0x36, 0x2f, 0x4d, 0x61, 0x74, 0x4d, 0x75, 0x6c, 0x31,
  0x00, 0x00, 0x00, 0x00, 0x02, 0x00, 0x00, 0x00, 0x01, 0x00, 0x00, 0x00,
  0x08, 0x00, 0x00, 0x00, 0xee, 0xef, 0xff, 0xff, 0x00, 0x00, 0x00, 0x01,
  0x18, 0x00, 0x00, 0x00, 0x20, 0x00, 0x00, 0x00, 0x40, 0x00, 0x00, 0x00,
  0x2a, 0x00, 0x00, 0x00, 0x00, 0x00, 0x00, 0x09, 0x90, 0x00, 0x00, 0x00,
  0x02, 0x00, 0x00, 0x00, 0xff, 0xff, 0xff, 0xff, 0x20, 0x00, 0x00, 0x00,
  0xd4, 0xef, 0xff, 0xff, 0x08, 0x00, 0x00, 0x00, 0x14, 0x00, 0x00, 0x00,
  0x01, 0x00, 0x00, 0x00, 0x1c, 0x00, 0x00, 0x00, 0x00, 0x00, 0x00, 0x00,
  0x00, 0x00, 0x00, 0x00, 0x01, 0x00, 0x00, 0x00, 0x0a, 0x6b, 0x9e, 0x3b,
  0x55, 0x00, 0x00, 0x00, 0x73, 0x65, 0x71, 0x75, 0x65, 0x6e, 0x74, 0x69,
  0x61, 0x6c, 0x5f, 0x31, 0x2f, 0x64, 0x65, 0x6e, 0x73, 0x65, 0x5f, 0x34,
  0x2f, 0x42, 0x69, 0x61, 0x73, 0x41, 0x64, 0x64, 0x3b, 0x73, 0x65, 0x71,
  0x75, 0x65, 0x6e, 0x74, 0x69, 0x61, 0x6c, 0x5f, 0x31, 0x2f, 0x64, 0x65,
  0x6e, 0x73, 0x65, 0x5f, 0x35, 0x2f, 0x4d, 0x61, 0x74, 0x4d, 0x75, 0x6c,
  0x3b, 0x73, 0x65, 0x71, 0x75, 0x65, 0x6e, 0x74, 0x69, 0x61, 0x6c, 0x5f,
  0x31, 0x2f, 0x64, 0x65, 0x6e, 0x73, 0x65, 0x5f, 0x35, 0x2f, 0x42, 0x69,
  0x61, 0x73, 0x41, 0x64, 0x64, 0x00, 0x00, 0x00, 0x02, 0x00, 0x00, 0x00,
  0x01, 0x00, 0x00, 0x00, 0x20, 0x00, 0x00, 0x00, 0xa6, 0xf0, 0xff, 0xff,
  0x00, 0x00, 0x00, 0x01, 0x18, 0x00, 0x00, 0x00, 0x20, 0x00, 0x00, 0x00,
  0x40, 0x00, 0x00, 0x00, 0x29, 0x00, 0x00, 0x00, 0x00, 0x00, 0x00, 0x09,
  0x58, 0x00, 0x00, 0x00, 0x02, 0x00, 0x00, 0x00, 0xff, 0xff, 0xff, 0xff,
  0x40, 0x00, 0x00, 0x00, 0x8c, 0xf0, 0xff, 0xff, 0x08, 0x00, 0x00, 0x00,
  0x14, 0x00, 0x00, 0x00, 0x01, 0x00, 0x00, 0x00, 0x11, 0x00, 0x00, 0x00,
  0x00, 0x00, 0x00, 0x00, 0x00, 0x00, 0x00, 0x00, 0x01, 0x00, 0x00, 0x00,
  0x24, 0x5c, 0x82, 0x3b, 0x1c, 0x00, 0x00, 0x00, 0x73, 0x65, 0x71, 0x75,
  0x65, 0x6e, 0x74, 0x69, 0x61, 0x6c, 0x5f, 0x31, 0x2f, 0x64, 0x65, 0x6e,
  0x73, 0x65, 0x5f, 0x34, 0x2f, 0x4d, 0x61, 0x74, 0x4d, 0x75, 0x6c, 0x32,
  0x00, 0x00, 0x00, 0x00, 0x02, 0x00, 0x00, 0x00, 0x01, 0x00, 0x00, 0x00,
  0x40, 0x00, 0x00, 0x00, 0x26, 0xf1, 0xff, 0xff, 0x00, 0x00, 0x00, 0x01,
  0x18, 0x00, 0x00, 0x00, 0x20, 0x00, 0x00, 0x00, 0x40, 0x00, 0x00, 0x00,
  0x28, 0x00, 0x00, 0x00, 0x00, 0x00, 0x00, 0x09, 0x4c, 0x00, 0x00, 0x00,
  0x02, 0x00, 0x00, 0x00, 0xff, 0xff, 0xff, 0xff, 0x0a, 0x00, 0x00, 0x00,
  0x0c, 0xf1, 0xff, 0xff, 0x08, 0x00, 0x00, 0x00, 0x14, 0x00, 0x00, 0x00,
  0x01, 0x00, 0x00, 0x00, 0xe4, 0xff, 0xff, 0xff, 0xff, 0xff, 0xff, 0xff,
  0x00, 0x00, 0x00, 0x00, 0x01, 0x00, 0x00, 0x00, 0x68, 0x4f, 0xb8, 0x3b,
  0x10, 0x00, 0x00, 0x00, 0x73, 0x74, 0x72, 0x69, 0x64, 0x65, 0x64, 0x5f,
  0x73, 0x6c, 0x69, 0x63, 0x65, 0x5f, 0x32, 0x33, 0x00, 0x00, 0x00, 0x00,
  0x02, 0x00, 0x00, 0x00, 0x01, 0x00, 0x00, 0x00, 0x0a, 0x00, 0x00, 0x00,
  0x9a, 0xf1, 0xff, 0xff, 0x00, 0x00, 0x00, 0x01, 0x18, 0x00, 0x00, 0x00,
  0x24, 0x00, 0x00, 0x00, 0x40, 0x00, 0x00, 0x00, 0x27, 0x00, 0x00, 0x00,
  0x00, 0x00, 0x00, 0x09, 0x48, 0x00, 0x00, 0x00, 0x03, 0x00, 0x00, 0x00,
  0x01, 0x00, 0x00, 0x00, 0xff, 0xff, 0xff, 0xff, 0x0a, 0x00, 0x00, 0x00,
  0x84, 0xf1, 0xff, 0xff, 0x08, 0x00, 0x00, 0x00, 0x10, 0x00, 0x00, 0x00,
  0x01, 0x00, 0x00, 0x00, 0xe4, 0xff, 0xff, 0xff, 0xff, 0xff, 0xff, 0xff,
  0x01, 0x00, 0x00, 0x00, 0x68, 0x4f, 0xb8, 0x3b, 0x0d, 0x00, 0x00, 0x00,
  0x74, 0x66, 0x6c, 0x2e, 0x71, 0x75, 0x61, 0x6e, 0x74, 0x69, 0x7a, 0x65,
  0x31, 0x00, 0x00, 0x00, 0x03, 0x00, 0x00, 0x00, 0x01, 0x00, 0x00, 0x00,
  0x01, 0x00, 0x00, 0x00, 0x0a, 0x00, 0x00, 0x00, 0x62, 0xfc, 0xff, 0xff,
  0x00, 0x00, 0x00, 0x01, 0x14, 0x00, 0x00, 0x00, 0x20, 0x00, 0x00, 0x00,
  0x20, 0x00, 0x00, 0x00, 0x26, 0x00, 0x00, 0x00, 0x40, 0x00, 0x00, 0x00,
  0x03, 0x00, 0x00, 0x00, 0x01, 0x00, 0x00, 0x00, 0xff, 0xff, 0xff, 0xff,
  0x0a, 0x00, 0x00, 0x00, 0x78, 0xf2, 0xff, 0xff, 0x22, 0x00, 0x00, 0x00,
  0x54, 0x65, 0x6e, 0x73, 0x6f, 0x72, 0x41, 0x72, 0x72, 0x61, 0x79, 0x56,
  0x32, 0x53, 0x74, 0x61, 0x63, 0x6b, 0x2f, 0x54, 0x65, 0x6e, 0x73, 0x6f,
  0x72, 0x4c, 0x69, 0x73, 0x74, 0x53, 0x74, 0x61, 0x63, 0x6b, 0x00, 0x00,
  0x03, 0x00, 0x00, 0x00, 0x01, 0x00, 0x00, 0x00, 0x01, 0x00, 0x00, 0x00,
  0x0a, 0x00, 0x00, 0x00, 0xca, 0xfc, 0xff, 0xff, 0x00, 0x00, 0x00, 0x01,
  0x14, 0x00, 0x00, 0x00, 0x20, 0x00, 0x00, 0x00, 0x20, 0x00, 0x00, 0x00,
  0x25, 0x00, 0x00, 0x00, 0x48, 0x00, 0x00, 0x00, 0x03, 0x00, 0x00, 0x00,
  0x90, 0x01, 0x00, 0x00, 0xff, 0xff, 0xff, 0xff, 0x04, 0x00, 0x00, 0x00,
  0xe0, 0xf2, 0xff, 0xff, 0x29, 0x00, 0x00, 0x00, 0x77, 0x68, 0x69, 0x6c,
  0x65, 0x3b, 0x77, 0x68, 0x69, 0x6c, 0x65, 0x31, 0x3b, 0x77, 0x68, 0x69,
  0x6c, 0x65, 0x32, 0x3b, 0x77, 0x68, 0x69, 0x6c, 0x65, 0x33, 0x3b, 0x77,
  0x68, 0x69, 0x6c, 0x65, 0x34, 0x3b, 0x77, 0x68, 0x69, 0x6c, 0x65, 0x35,
  0x35, 0x00, 0x00, 0x00, 0x03, 0x00, 0x00, 0x00, 0x90, 0x01, 0x00, 0x00,
  0x01, 0x00, 0x00, 0x00, 0x04, 0x00, 0x00, 0x00, 0x3a, 0xfd, 0xff, 0xff,
  0x00, 0x00, 0x00, 0x01, 0x14, 0x00, 0x00, 0x00, 0x1c, 0x00, 0x00, 0x00,
  0x1c, 0x00, 0x00, 0x00, 0x24, 0x00, 0x00, 0x00, 0x44, 0x00, 0x00, 0x00,
  0x02, 0x00, 0x00, 0x00, 0xff, 0xff, 0xff, 0xff, 0x0a, 0x00, 0x00, 0x00,
  0x4c, 0xf3, 0xff, 0xff, 0x29, 0x00, 0x00, 0x00, 0x77, 0x68, 0x69, 0x6c,
  0x65, 0x3b, 0x77, 0x68, 0x69, 0x6c, 0x65, 0x31, 0x3b, 0x77, 0x68, 0x69,
  0x6c, 0x65, 0x32, 0x3b, 0x77, 0x68, 0x69, 0x6c, 0x65, 0x33, 0x3b, 0x77,
  0x68, 0x69, 0x6c, 0x65, 0x34, 0x3b, 0x77, 0x68, 0x69, 0x6c, 0x65, 0x35,
  0x34, 0x00, 0x00, 0x00, 0x02, 0x00, 0x00, 0x00, 0x01, 0x00, 0x00, 0x00,
  0x0a, 0x00, 0x00, 0x00, 0xa2, 0xfd, 0xff, 0xff, 0x00, 0x00, 0x00, 0x01,
  0x14, 0x00, 0x00, 0x00, 0x1c, 0x00, 0x00, 0x00, 0x1c, 0x00, 0x00, 0x00,
  0x23, 0x00, 0x00, 0x00, 0x44, 0x00, 0x00, 0x00, 0x02, 0x00, 0x00, 0x00,
  0xff, 0xff, 0xff, 0xff, 0x0a, 0x00, 0x00, 0x00, 0xb4, 0xf3, 0xff, 0xff,
  0x29, 0x00, 0x00, 0x00, 0x77, 0x68, 0x69, 0x6c, 0x65, 0x3b, 0x77, 0x68,
  0x69, 0x6c, 0x65, 0x31, 0x3b, 0x77, 0x68, 0x69, 0x6c, 0x65, 0x32, 0x3b,
  0x77, 0x68, 0x69, 0x6c, 0x65, 0x33, 0x3b, 0x77, 0x68, 0x69, 0x6c, 0x65,
  0x34, 0x3b, 0x77, 0x68, 0x69, 0x6c, 0x65, 0x35, 0x33, 0x00, 0x00, 0x00,
  0x02, 0x00, 0x00, 0x00, 0x01, 0x00, 0x00, 0x00, 0x0a, 0x00, 0x00, 0x00,
  0x26, 0xf4, 0xff, 0xff, 0x00, 0x00, 0x00, 0x01, 0x14, 0x00, 0x00, 0x00,
  0x14, 0x00, 0x00, 0x00, 0x22, 0x00, 0x00, 0x00, 0x00, 0x00, 0x00, 0x0e,
  0x38, 0x00, 0x00, 0x00, 0x10, 0xf4, 0xff, 0xff, 0x29, 0x00, 0x00, 0x00,
  0x77, 0x68, 0x69, 0x6c, 0x65, 0x3b, 0x77, 0x68, 0x69, 0x6c, 0x65, 0x31,
  0x3b, 0x77, 0x68, 0x69, 0x6c, 0x65, 0x32, 0x3b, 0x77, 0x68, 0x69, 0x6c,
  0x65, 0x33, 0x3b, 0x77, 0x68, 0x69, 0x6c, 0x65, 0x34, 0x3b, 0x77, 0x68,
  0x69, 0x6c, 0x65, 0x35, 0x32, 0x00, 0x00, 0x00, 0x00, 0x00, 0x00, 0x00,
  0x7a, 0xf4, 0xff, 0xff, 0x00, 0x00, 0x00, 0x01, 0x14, 0x00, 0x00, 0x00,
  0x14, 0x00, 0x00, 0x00, 0x21, 0x00, 0x00, 0x00, 0x00, 0x00, 0x00, 0x02,
  0x38, 0x00, 0x00, 0x00, 0x64, 0xf4, 0xff, 0xff, 0x29, 0x00, 0x00, 0x00,
  0x77, 0x68, 0x69, 0x6c, 0x65, 0x3b, 0x77, 0x68, 0x69, 0x6c, 0x65, 0x31,
  0x3b, 0x77, 0x68, 0x69, 0x6c, 0x65, 0x32, 0x3b, 0x77, 0x68, 0x69, 0x6c,
  0x65, 0x33, 0x3b, 0x77, 0x68, 0x69, 0x6c, 0x65, 0x34, 0x3b, 0x77, 0x68,
  0x69, 0x6c, 0x65, 0x35, 0x31, 0x00, 0x00, 0x00, 0x00, 0x00, 0x00, 0x00,
  0xce, 0xf4, 0xff, 0xff, 0x00, 0x00, 0x00, 0x01, 0x14, 0x00, 0x00, 0x00,
  0x14, 0x00, 0x00, 0x00, 0x20, 0x00, 0x00, 0x00, 0x00, 0x00, 0x00, 0x02,
  0x38, 0x00, 0x00, 0x00, 0xb8, 0xf4, 0xff, 0xff, 0x28, 0x00, 0x00, 0x00,
  0x77, 0x68, 0x69, 0x6c, 0x65, 0x3b, 0x77, 0x68, 0x69, 0x6c, 0x65, 0x31,
  0x3b, 0x77, 0x68, 0x69, 0x6c, 0x65, 0x32, 0x3b, 0x77, 0x68, 0x69, 0x6c,
  0x65, 0x33, 0x3b, 0x77, 0x68, 0x69, 0x6c, 0x65, 0x34, 0x3b, 0x77, 0x68,
  0x69, 0x6c, 0x65, 0x35, 0x00, 0x00, 0x00, 0x00, 0x00, 0x00, 0x00, 0x00,
  0x06, 0xff, 0xff, 0xff, 0x00, 0x00, 0x00, 0x01, 0x14, 0x00, 0x00, 0x00,
  0x20, 0x00, 0x00, 0x00, 0x20, 0x00, 0x00, 0x00, 0x1f, 0x00, 0x00, 0x00,
  0x28, 0x00, 0x00, 0x00, 0x03, 0x00, 0x00, 0x00, 0x90, 0x01, 0x00, 0x00,
  0xff, 0xff, 0xff, 0xff, 0x04, 0x00, 0x00, 0x00, 0x1c, 0xf5, 0xff, 0xff,
  0x0a, 0x00, 0x00, 0x00, 0x74, 0x72, 0x61, 0x6e, 0x73, 0x70, 0x6f, 0x73,
  0x65, 0x31, 0x00, 0x00, 0x03, 0x00, 0x00, 0x00, 0x90, 0x01, 0x00, 0x00,
  0x01, 0x00, 0x00, 0x00, 0x04, 0x00, 0x00, 0x00, 0x02, 0xf5, 0xff, 0xff,
  0x00, 0x00, 0x00, 0x01, 0x18, 0x00, 0x00, 0x00, 0x24, 0x00, 0x00, 0x00,
  0x40, 0x00, 0x00, 0x00, 0x1e, 0x00, 0x00, 0x00, 0x00, 0x00, 0x00, 0x09,
  0x44, 0x00, 0x00, 0x00, 0x03, 0x00, 0x00, 0x00, 0x90, 0x01, 0x00, 0x00,
  0xff, 0xff, 0xff, 0xff, 0x04, 0x00, 0x00, 0x00, 0xec, 0xf4, 0xff, 0xff,
  0x08, 0x00, 0x00, 0x00, 0x10, 0x00, 0x00, 0x00, 0x01, 0x00, 0x00, 0x00,
  0x22, 0x00, 0x00, 0x00, 0x00, 0x00, 0x00, 0x00, 0x01, 0x00, 0x00, 0x00,
  0x5d, 0xfb, 0x63, 0x3d, 0x09, 0x00, 0x00, 0x00, 0x74, 0x72, 0x61, 0x6e,
  0x73, 0x70, 0x6f, 0x73, 0x65, 0x00, 0x00, 0x00, 0x03, 0x00, 0x00, 0x00,
  0x90, 0x01, 0x00, 0x00, 0x01, 0x00, 0x00, 0x00, 0x04, 0x00, 0x00, 0x00,
  0xe2, 0xf5, 0xff, 0xff, 0x00, 0x00, 0x00, 0x01, 0x14, 0x00, 0x00, 0x00,
  0x14, 0x00, 0x00, 0x00, 0x1d, 0x00, 0x00, 0x00, 0x00, 0x00, 0x00, 0x0e,
  0x1c, 0x00, 0x00, 0x00, 0xcc, 0xf5, 0xff, 0xff, 0x0f, 0x00, 0x00, 0x00,
  0x54, 0x65, 0x6e, 0x73, 0x6f, 0x72, 0x41, 0x72, 0x72, 0x61, 0x79, 0x56,
  0x32, 0x5f, 0x31, 0x00, 0x00, 0x00, 0x00, 0x00, 0x00, 0x00, 0x16, 0x00,
  0x1c, 0x00, 0x18, 0x00, 0x00, 0x00, 0x14, 0x00, 0x10, 0x00, 0x0c, 0x00,
  0x00, 0x00, 0x00, 0x00, 0x08, 0x00, 0x07, 0x00, 0x16, 0x00, 0x00, 0x00,
  0x00, 0x00, 0x00, 0x01, 0x14, 0x00, 0x00, 0x00, 0x1c, 0x00, 0x00, 0x00,
  0x1c, 0x00, 0x00, 0x00, 0x1c, 0x00, 0x00, 0x00, 0x28, 0x00, 0x00, 0x00,
  0x02, 0x00, 0x00, 0x00, 0xff, 0xff, 0xff, 0xff, 0x0a, 0x00, 0x00, 0x00,
  0x28, 0xf6, 0xff, 0xff, 0x0e, 0x00, 0x00, 0x00, 0x74, 0x66, 0x6c, 0x2e,
  0x64, 0x65, 0x71, 0x75, 0x61, 0x6e, 0x74, 0x69, 0x7a, 0x65, 0x00, 0x00,
  0x02, 0x00, 0x00, 0x00, 0x01, 0x00, 0x00, 0x00, 0x0a, 0x00, 0x00, 0x00,
  0x0e, 0xf6, 0xff, 0xff, 0x00, 0x00, 0x00, 0x01, 0x18, 0x00, 0x00, 0x00,
  0x20, 0x00, 0x00, 0x00, 0x3c, 0x00, 0x00, 0x00, 0x1b, 0x00, 0x00, 0x00,
  0x00, 0x00, 0x00, 0x09, 0x50, 0x00, 0x00, 0x00, 0x02, 0x00, 0x00, 0x00,
  0xff, 0xff, 0xff, 0xff, 0x0a, 0x00, 0x00, 0x00, 0xf4, 0xf5, 0xff, 0xff,
  0x08, 0x00, 0x00, 0x00, 0x10, 0x00, 0x00, 0x00, 0x01, 0x00, 0x00, 0x00,
  0x00, 0x00, 0x00, 0x00, 0x00, 0x00, 0x00, 0x00, 0x01, 0x00, 0x00, 0x00,
  0x7b, 0xbe, 0x06, 0x32, 0x19, 0x00, 0x00, 0x00, 0x73, 0x65, 0x71, 0x75,
  0x65, 0x6e, 0x74, 0x69, 0x61, 0x6c, 0x5f, 0x31, 0x2f, 0x6c, 0x73, 0x74,
  0x6d, 0x5f, 0x31, 0x2f, 0x7a, 0x65, 0x72, 0x6f, 0x73, 0x00, 0x00, 0x00,
  0x02, 0x00, 0x00, 0x00, 0x01, 0x00, 0x00, 0x00, 0x0a, 0x00, 0x00, 0x00,
  0xf6, 0xf6, 0xff, 0xff, 0x00, 0x00, 0x00, 0x01, 0x14, 0x00, 0x00, 0x00,
  0x14, 0x00, 0x00, 0x00, 0x1a, 0x00, 0x00, 0x00, 0x00, 0x00, 0x00, 0x02,
  0x30, 0x00, 0x00, 0x00, 0xe0, 0xf6, 0xff, 0xff, 0x20, 0x00, 0x00, 0x00,
  0x73, 0x65, 0x71, 0x75, 0x65, 0x6e, 0x74, 0x69, 0x61, 0x6c, 0x5f, 0x31,
  0x2f, 0x6c, 0x73, 0x74, 0x6d, 0x5f, 0x31, 0x2f, 0x7a, 0x65, 0x72, 0x6f,
  0x73, 0x2f, 0x70, 0x61, 0x63, 0x6b, 0x65, 0x64, 0x00, 0x00, 0x00, 0x00,
  0x01, 0x00, 0x00, 0x00, 0x02, 0x00, 0x00, 0x00, 0x46, 0xf7, 0xff, 0xff,
  0x00, 0x00, 0x00, 0x01, 0x14, 0x00, 0x00, 0x00, 0x14, 0x00, 0x00, 0x00,
  0x19, 0x00, 0x00, 0x00, 0x00, 0x00, 0x00, 0x02, 0x30, 0x00, 0x00, 0x00,
  0x30, 0xf7, 0xff, 0xff, 0x21, 0x00, 0x00, 0x00, 0x73, 0x65, 0x71, 0x75,
  0x65, 0x6e, 0x74, 0x69, 0x61, 0x6c, 0x5f, 0x31, 0x2f, 0x6c, 0x73, 0x74,
  0x6d, 0x5f, 0x31, 0x2f, 0x73, 0x74, 0x72, 0x69, 0x64, 0x65, 0x64, 0x5f,
  0x73, 0x6c, 0x69, 0x63, 0x65, 0x00, 0x00, 0x00, 0x00, 0x00, 0x00, 0x00,
  0x92, 0xf7, 0xff, 0xff, 0x00, 0x00, 0x00, 0x01, 0x14, 0x00, 0x00, 0x00,
  0x14, 0x00, 0x00, 0x00, 0x18, 0x00, 0x00, 0x00, 0x00, 0x00, 0x00, 0x02,
  0x28, 0x00, 0x00, 0x00, 0x7c, 0xf7, 0xff, 0xff, 0x19, 0x00, 0x00, 0x00,
  0x73, 0x65, 0x71, 0x75, 0x65, 0x6e, 0x74, 0x69, 0x61, 0x6c, 0x5f, 0x31,
  0x2f, 0x6c, 0x73, 0x74, 0x6d, 0x5f, 0x31, 0x2f, 0x53, 0x68, 0x61, 0x70,
  0x65, 0x00, 0x00, 0x00, 0x01, 0x00, 0x00, 0x00, 0x03, 0x00, 0x00, 0x00,
  0x6a, 0xf7, 0xff, 0xff, 0x00, 0x00, 0x00, 0x01, 0x18, 0x00, 0x00, 0x00,
  0x24, 0x00, 0x00, 0x00, 0x40, 0x00, 0x00, 0x00, 0x17, 0x00, 0x00, 0x00,
  0x00, 0x00, 0x00, 0x09, 0x7c, 0x00, 0x00, 0x00, 0x03, 0x00, 0x00, 0x00,
  0xff, 0xff, 0xff, 0xff, 0x90, 0x01, 0x00, 0x00, 0x04, 0x00, 0x00, 0x00,
  0x54, 0xf7, 0xff, 0xff, 0x08, 0x00, 0x00, 0x00, 0x10, 0x00, 0x00, 0x00,
  0x01, 0x00, 0x00, 0x00, 0x22, 0x00, 0x00, 0x00, 0x00, 0x00, 0x00, 0x00,
  0x01, 0x00, 0x00, 0x00, 0x5d, 0xfb, 0x63, 0x3d, 0x43, 0x00, 0x00, 0x00,
  0x73, 0x65, 0x71, 0x75, 0x65, 0x6e, 0x74, 0x69, 0x61, 0x6c, 0x5f, 0x31,
  0x2f, 0x6e, 0x6f, 0x72, 0x6d, 0x61, 0x6c, 0x69, 0x7a, 0x61, 0x74, 0x69,
  0x6f, 0x6e, 0x2f, 0x74, 0x72, 0x75, 0x65, 0x64, 0x69, 0x76, 0x3b, 0x73,
  0x65, 0x71, 0x75, 0x65, 0x6e, 0x74, 0x69, 0x61, 0x6c, 0x5f, 0x31, 0x2f,
  0x6e, 0x6f, 0x72, 0x6d, 0x61, 0x6c, 0x69, 0x7a, 0x61, 0x74, 0x69, 0x6f,
  0x6e, 0x2f, 0x53, 0x71, 0x72, 0x74, 0x31, 0x00, 0x03, 0x00, 0x00, 0x00,
  0x01, 0x00, 0x00, 0x00, 0x90, 0x01, 0x00, 0x00, 0x04, 0x00, 0x00, 0x00,
  0x12, 0xf8, 0xff, 0xff, 0x00, 0x00, 0x00, 0x01, 0x18, 0x00, 0x00, 0x00,
  0x24, 0x00, 0x00, 0x00, 0x44, 0x00, 0x00, 0x00, 0x16, 0x00, 0x00, 0x00,
  0x00, 0x00, 0x00, 0x09, 0x5c, 0x00, 0x00, 0x00, 0x03, 0x00, 0x00, 0x00,
  0xff, 0xff, 0xff, 0xff, 0x90, 0x01, 0x00, 0x00, 0x04, 0x00, 0x00, 0x00,
  0xfc, 0xf7, 0xff, 0xff, 0x08, 0x00, 0x00, 0x00, 0x14, 0x00, 0x00, 0x00,
  0x01, 0x00, 0x00, 0x00, 0x39, 0x00, 0x00, 0x00, 0x00, 0x00, 0x00, 0x00,
  0x00, 0x00, 0x00, 0x00, 0x01, 0x00, 0x00, 0x00, 0xa6, 0x7d, 0x00, 0x3c,
  0x1e, 0x00, 0x00, 0x00, 0x73, 0x65, 0x71, 0x75, 0x65, 0x6e, 0x74, 0x69,
  0x61, 0x6c, 0x5f, 0x31, 0x2f, 0x6e, 0x6f, 0x72, 0x6d, 0x61, 0x6c, 0x69,
  0x7a, 0x61, 0x74, 0x69, 0x6f, 0x6e, 0x2f, 0x73, 0x75, 0x62, 0x00, 0x00,
  0x03, 0x00, 0x00, 0x00, 0x01, 0x00, 0x00, 0x00, 0x90, 0x01, 0x00, 0x00,
  0x04, 0x00, 0x00, 0x00, 0x9a, 0xf8, 0xff, 0xff, 0x00, 0x00, 0x00, 0x01,
  0x18, 0x00, 0x00, 0x00, 0x24, 0x00, 0x00, 0x00, 0x40, 0x00, 0x00, 0x00,
  0x15, 0x00, 0x00, 0x00, 0x00, 0x00, 0x00, 0x09, 0x48, 0x00, 0x00, 0x00,
  0x03, 0x00, 0x00, 0x00, 0xff, 0xff, 0xff, 0xff, 0x90, 0x01, 0x00, 0x00,
  0x04, 0x00, 0x00, 0x00, 0x84, 0xf8, 0xff, 0xff, 0x08, 0x00, 0x00, 0x00,
  0x10, 0x00, 0x00, 0x00, 0x01, 0x00, 0x00, 0x00, 0xff, 0xff, 0xff, 0xff,
  0xff, 0xff, 0xff, 0xff, 0x01, 0x00, 0x00, 0x00, 0x1f, 0x80, 0x00, 0x3c,
  0x0c, 0x00, 0x00, 0x00, 0x74, 0x66, 0x6c, 0x2e, 0x71, 0x75, 0x61, 0x6e,
  0x74, 0x69, 0x7a, 0x65, 0x00, 0x00, 0x00, 0x00, 0x03, 0x00, 0x00, 0x00,
  0x01, 0x00, 0x00, 0x00, 0x90, 0x01, 0x00, 0x00, 0x04, 0x00, 0x00, 0x00,
  0x7e, 0xf9, 0xff, 0xff, 0x00, 0x00, 0x00, 0x01, 0x14, 0x00, 0x00, 0x00,
  0x30, 0x00, 0x00, 0x00, 0x14, 0x00, 0x00, 0x00, 0x00, 0x00, 0x00, 0x09,
  0x30, 0x00, 0x00, 0x00, 0xe4, 0xf8, 0xff, 0xff, 0x08, 0x00, 0x00, 0x00,
  0x10, 0x00, 0x00, 0x00, 0x01, 0x00, 0x00, 0x00, 0x80, 0xff, 0xff, 0xff,
  0xff, 0xff, 0xff, 0xff, 0x01, 0x00, 0x00, 0x00, 0x3b, 0x47, 0x23, 0x3b,
  0x07, 0x00, 0x00, 0x00, 0x43, 0x6f, 0x6e, 0x73, 0x74, 0x5f, 0x31, 0x00,
  0x03, 0x00, 0x00, 0x00, 0x01, 0x00, 0x00, 0x00, 0x01, 0x00, 0x00, 0x00,
  0x04, 0x00, 0x00, 0x00, 0xd6, 0xf9, 0xff, 0xff, 0x00, 0x00, 0x00, 0x01,
  0x14, 0x00, 0x00, 0x00, 0x34, 0x00, 0x00, 0x00, 0x13, 0x00, 0x00, 0x00,
  0x00, 0x00, 0x00, 0x09, 0x70, 0x00, 0x00, 0x00, 0x3c, 0xf9, 0xff, 0xff,
  0x08, 0x00, 0x00, 0x00, 0x14, 0x00, 0x00, 0x00, 0x01, 0x00, 0x00, 0x00,
  0x80, 0xff, 0xff, 0xff, 0xff, 0xff, 0xff, 0xff, 0x00, 0x00, 0x00, 0x00,
  0x01, 0x00, 0x00, 0x00, 0xd1, 0x0d, 0x64, 0x3d, 0x42, 0x00, 0x00, 0x00,
  0x73, 0x65, 0x71, 0x75, 0x65, 0x6e, 0x74, 0x69, 0x61, 0x6c, 0x5f, 0x31,
  0x2f, 0x6e, 0x6f, 0x72, 0x6d, 0x61, 0x6c, 0x69, 0x7a, 0x61, 0x74, 0x69,
  0x6f, 0x6e, 0x2f, 0x74, 0x72, 0x75, 0x65, 0x64, 0x69, 0x76, 0x3b, 0x73,
  0x65, 0x71, 0x75, 0x65, 0x6e, 0x74, 0x69, 0x61, 0x6c, 0x5f, 0x31, 0x2f,
  0x6e, 0x6f, 0x72, 0x6d, 0x61, 0x6c, 0x69, 0x7a, 0x61, 0x74, 0x69, 0x6f,
  0x6e, 0x2f, 0x53, 0x71, 0x72, 0x74, 0x00, 0x00, 0x03, 0x00, 0x00, 0x00,
  0x01, 0x00, 0x00, 0x00, 0x01, 0x00, 0x00, 0x00, 0x04, 0x00, 0x00, 0x00,
  0x6e, 0xfa, 0xff, 0xff, 0x00, 0x00, 0x00, 0x01, 0x14, 0x00, 0x00, 0x00,
  0x34, 0x00, 0x00, 0x00, 0x12, 0x00, 0x00, 0x00, 0x00, 0x00, 0x00, 0x09,
  0x4c, 0x00, 0x00, 0x00, 0xd4, 0xf9, 0xff, 0xff, 0x08, 0x00, 0x00, 0x00,
  0x14, 0x00, 0x00, 0x00, 0x01, 0x00, 0x00, 0x00, 0x00, 0x00, 0x00, 0x00,
  0x00, 0x00, 0x00, 0x00, 0x00, 0x00, 0x00, 0x00, 0x01, 0x00, 0x00, 0x00,
  0x7b, 0xbe, 0x06, 0x32, 0x1f, 0x00, 0x00, 0x00, 0x73, 0x65, 0x71, 0x75,
  0x65, 0x6e, 0x74, 0x69, 0x61, 0x6c, 0x5f, 0x31, 0x2f, 0x6c, 0x73, 0x74,
  0x6d, 0x5f, 0x31, 0x2f, 0x7a, 0x65, 0x72, 0x6f, 0x73, 0x2f, 0x43, 0x6f,
  0x6e, 0x73, 0x74, 0x00, 0x00, 0x00, 0x00, 0x00, 0xd6, 0xfa, 0xff, 0xff,
  0x00, 0x00, 0x00, 0x01, 0x14, 0x00, 0x00, 0x00, 0x34, 0x00, 0x00, 0x00,
  0x11, 0x00, 0x00, 0x00, 0x00, 0x00, 0x00, 0x09, 0x4c, 0x00, 0x00, 0x00,
  0x3c, 0xfa, 0xff, 0xff, 0x08, 0x00, 0x00, 0x00, 0x14, 0x00, 0x00, 0x00,
  0x01, 0x00, 0x00, 0x00, 0x00, 0x00, 0x00, 0x00, 0x00, 0x00, 0x00, 0x00,
  0x00, 0x00, 0x00, 0x00, 0x01, 0x00, 0x00, 0x00, 0x05, 0x98, 0x26, 0x3b,
  0x1c, 0x00, 0x00, 0x00, 0x73, 0x65, 0x71, 0x75, 0x65, 0x6e, 0x74, 0x69,
  0x61, 0x6c, 0x5f, 0x31, 0x2f, 0x64, 0x65, 0x6e, 0x73, 0x65, 0x5f, 0x34,
  0x2f, 0x4d, 0x61, 0x74, 0x4d, 0x75, 0x6c, 0x31, 0x00, 0x00, 0x00, 0x00,
  0x02, 0x00, 0x00, 0x00, 0x40, 0x00, 0x00, 0x00, 0x0a, 0x00, 0x00, 0x00,
  0x46, 0xfb, 0xff, 0xff, 0x00, 0x00, 0x00, 0x01, 0x14, 0x00, 0x00, 0x00,
  0x30, 0x00, 0x00, 0x00, 0x10, 0x00, 0x00, 0x00, 0x00, 0x00, 0x00, 0x09,
  0x44, 0x00, 0x00, 0x00, 0xac, 0xfa, 0xff, 0xff, 0x08, 0x00, 0x00, 0x00,
  0x10, 0x00, 0x00, 0x00, 0x01, 0x00, 0x00, 0x00, 0x00, 0x00, 0x00, 0x00,
  0x00, 0x00, 0x00, 0x00, 0x01, 0x00, 0x00, 0x00, 0x17, 0x98, 0x09, 0x3b,
  0x1b, 0x00, 0x00, 0x00, 0x73, 0x65, 0x71, 0x75, 0x65, 0x6e, 0x74, 0x69,
  0x61, 0x6c, 0x5f, 0x31, 0x2f, 0x64, 0x65, 0x6e, 0x73, 0x65, 0x5f, 0x35,
  0x2f, 0x4d, 0x61, 0x74, 0x4d, 0x75, 0x6c, 0x00, 0x02, 0x00, 0x00, 0x00,
  0x20, 0x00, 0x00, 0x00, 0x40, 0x00, 0x00, 0x00, 0xae, 0xfb, 0xff, 0xff,
  0x00, 0x00, 0x00, 0x01, 0x14, 0x00, 0x00, 0x00, 0x34, 0x00, 0x00, 0x00,
  0x0f, 0x00, 0x00, 0x00, 0x00, 0x00, 0x00, 0x02, 0x68, 0x00, 0x00, 0x00,
  0x14, 0xfb, 0xff, 0xff, 0x08, 0x00, 0x00, 0x00, 0x14, 0x00, 0x00, 0x00,
  0x01, 0x00, 0x00, 0x00, 0x00, 0x00, 0x00, 0x00, 0x00, 0x00, 0x00, 0x00,
  0x00, 0x00, 0x00, 0x00, 0x01, 0x00, 0x00, 0x00, 0x83, 0x21, 0x0c, 0x37,
  0x38, 0x00, 0x00, 0x00, 0x73, 0x65, 0x71, 0x75, 0x65, 0x6e, 0x74, 0x69,
  0x61, 0x6c, 0x5f, 0x31, 0x2f, 0x64, 0x65, 0x6e, 0x73, 0x65, 0x5f, 0x35,
  0x2f, 0x4d, 0x61, 0x74, 0x4d, 0x75, 0x6c, 0x3b, 0x73, 0x65, 0x71, 0x75,
  0x65, 0x6e, 0x74, 0x69, 0x61, 0x6c, 0x5f, 0x31, 0x2f, 0x64, 0x65, 0x6e,
  0x73, 0x65, 0x5f, 0x35, 0x2f, 0x42, 0x69, 0x61, 0x73, 0x41, 0x64, 0x64,
  0x00, 0x00, 0x00, 0x00, 0x01, 0x00, 0x00, 0x00, 0x20, 0x00, 0x00, 0x00,
  0x36, 0xfc, 0xff, 0xff, 0x00, 0x00, 0x00, 0x01, 0x14, 0x00, 0x00, 0x00,
  0x30, 0x00, 0x00, 0x00, 0x0e, 0x00, 0x00, 0x00, 0x00, 0x00, 0x00, 0x09,
  0x44, 0x00, 0x00, 0x00, 0x9c, 0xfb, 0xff, 0xff, 0x08, 0x00, 0x00, 0x00,
  0x10, 0x00, 0x00, 0x00, 0x01, 0x00, 0x00, 0x00, 0x00, 0x00, 0x00, 0x00,
  0x00, 0x00, 0x00, 0x00, 0x01, 0x00, 0x00, 0x00, 0x6e, 0xdc, 0x5b, 0x3b,
  0x1b, 0x00, 0x00, 0x00, 0x73, 0x65, 0x71, 0x75, 0x65, 0x6e, 0x74, 0x69,
  0x61, 0x6c, 0x5f, 0x31, 0x2f, 0x64, 0x65, 0x6e, 0x73, 0x65, 0x5f, 0x36,
  0x2f, 0x4d, 0x61, 0x74, 0x4d, 0x75, 0x6c, 0x00, 0x02, 0x00, 0x00, 0x00,
  0x08, 0x00, 0x00, 0x00, 0x20, 0x00, 0x00, 0x00, 0x9e, 0xfc, 0xff, 0xff,
  0x00, 0x00, 0x00, 0x01, 0x14, 0x00, 0x00, 0x00, 0x30, 0x00, 0x00, 0x00,
  0x0d, 0x00, 0x00, 0x00, 0x00, 0x00, 0x00, 0x09, 0x44, 0x00, 0x00, 0x00,
  0x04, 0xfc, 0xff, 0xff, 0x08, 0x00, 0x00, 0x00, 0x10, 0x00, 0x00, 0x00,
  0x01, 0x00, 0x00, 0x00, 0x00, 0x00, 0x00, 0x00, 0x00, 0x00, 0x00, 0x00,
  0x01, 0x00, 0x00, 0x00, 0x7e, 0xe4, 0xa2, 0x3b, 0x1b, 0x00, 0x00, 0x00,
  0x73, 0x65, 0x71, 0x75, 0x65, 0x6e, 0x74, 0x69, 0x61, 0x6c, 0x5f, 0x31,
  0x2f, 0x64, 0x65, 0x6e, 0x73, 0x65, 0x5f, 0x37, 0x2f, 0x4d, 0x61, 0x74,
  0x4d, 0x75, 0x6c, 0x00, 0x02, 0x00, 0x00, 0x00, 0x01, 0x00, 0x00, 0x00,
  0x08, 0x00, 0x00, 0x00, 0x06, 0xfd, 0xff, 0xff, 0x00, 0x00, 0x00, 0x01,
  0x14, 0x00, 0x00, 0x00, 0x30, 0x00, 0x00, 0x00, 0x0c, 0x00, 0x00, 0x00,
  0x00, 0x00, 0x00, 0x02, 0x64, 0x00, 0x00, 0x00, 0x6c, 0xfc, 0xff, 0xff,
  0x08, 0x00, 0x00, 0x00, 0x10, 0x00, 0x00, 0x00, 0x01, 0x00, 0x00, 0x00,
  0x00, 0x00, 0x00, 0x00, 0x00, 0x00, 0x00, 0x00, 0x01, 0x00, 0x00, 0x00,
  0x81, 0x65, 0xb4, 0x37, 0x38, 0x00, 0x00, 0x00, 0x73, 0x65, 0x71, 0x75,
  0x65, 0x6e, 0x74, 0x69, 0x61, 0x6c, 0x5f, 0x31, 0x2f, 0x64, 0x65, 0x6e,
  0x73, 0x65, 0x5f, 0x37, 0x2f, 0x4d, 0x61, 0x74, 0x4d, 0x75, 0x6c, 0x3b,
  0x73, 0x65, 0x71, 0x75, 0x65, 0x6e, 0x74, 0x69, 0x61, 0x6c, 0x5f, 0x31,
  0x2f, 0x64, 0x65, 0x6e, 0x73, 0x65, 0x5f, 0x37, 0x2f, 0x42, 0x69, 0x61,
  0x73, 0x41, 0x64, 0x64, 0x00, 0x00, 0x00, 0x00, 0x01, 0x00, 0x00, 0x00,
  0x01, 0x00, 0x00, 0x00, 0x8a, 0xfd, 0xff, 0xff, 0x00, 0x00, 0x00, 0x01,
  0x14, 0x00, 0x00, 0x00, 0x14, 0x00, 0x00, 0x00, 0x0b, 0x00, 0x00, 0x00,
  0x00, 0x00, 0x00, 0x02, 0x20, 0x00, 0x00, 0x00, 0x74, 0xfd, 0xff, 0xff,
  0x10, 0x00, 0x00, 0x00, 0x73, 0x74, 0x72, 0x69, 0x64, 0x65, 0x64, 0x5f,
  0x73, 0x6c, 0x69, 0x63, 0x65, 0x5f, 0x32, 0x32, 0x00, 0x00, 0x00, 0x00,
  0x01, 0x00, 0x00, 0x00, 0x03, 0x00, 0x00, 0x00, 0xca, 0xfd, 0xff, 0xff,
  0x00, 0x00, 0x00, 0x01, 0x14, 0x00, 0x00, 0x00, 0x14, 0x00, 0x00, 0x00,
  0x0a, 0x00, 0x00, 0x00, 0x00, 0x00, 0x00, 0x02, 0x20, 0x00, 0x00, 0x00,
  0xb4, 0xfd, 0xff, 0xff, 0x10, 0x00, 0x00, 0x00, 0x73, 0x74, 0x72, 0x69,
  0x64, 0x65, 0x64, 0x5f, 0x73, 0x6c, 0x69, 0x63, 0x65, 0x5f, 0x32, 0x31,
